[PAD]	0
[UNK]	0
[BOS]	0
[EOS]	0
▁t	-0
▁th	-1
▁a	-2
in	-3
▁the	-4
re	-5
▁s	-6
▁w	-7
▁c	-8
▁o	-9
er	-10
en	-11
▁i	-12
ou	-13
at	-14
▁b	-15
le	-16
an	-17
on	-18
ing	-19
▁p	-20
▁to	-21
▁h	-22
ar	-23
or	-24
▁d	-25
▁m	-26
▁f	-27
▁an	-28
es	-29
us	-30
▁be	-31
▁of	-32
▁and	-33
▁e	-34
al	-35
ot	-36
▁in	-37
ve	-38
as	-39
it	-40
▁is	-41
▁n	-42
ed	-43
is	-44
ld	-45
om	-46
▁that	-47
▁l	-48
ion	-49
ut	-50
▁it	-51
ll	-52
ent	-53
ould	-54
▁g	-55
▁T	-56
ct	-57
ri	-58
ver	-59
he	-60
▁on	-61
ow	-62
▁I	-63
▁car	-64
▁st	-65
ay	-66
▁y	-67
▁ha	-68
et	-69
ce	-70
▁wh	-71
ch	-72
ly	-73
▁re	-74
▁you	-75
id	-76
ke	-77
ro	-78
▁are	-79
▁for	-80
ic	-81
ss	-82
op	-83
st	-84
ol	-85
▁The	-86
▁we	-87
ur	-88
▁li	-89
el	-90
▁dri	-91
▁can	-92
th	-93
▁have	-94
▁v	-95
ad	-96
▁they	-97
▁would	-98
▁not	-99
use	-100
▁al	-101
▁mo	-102
ge	-103
gh	-104
ir	-105
im	-106
▁A	-107
ill	-108
▁te	-109
eop	-110
▁cars	-111
eople	-112
ith	-113
▁or	-114
ers	-115
▁this	-116
se	-117
enus	-118
▁people	-119
un	-120
▁V	-121
ra	-122
▁S	-123
▁bec	-124
▁ne	-125
less	-126
▁sh	-127
lect	-128
▁ex	-129
▁C	-130
ome	-131
▁fa	-132
▁"	-133
ause	-134
▁with	-135
▁go	-136
▁ab	-137
ure	-138
ud	-139
▁Venus	-140
▁pl	-141
▁could	-142
▁con	-143
▁E	-144
▁was	-145
ions	-146
▁j	-147
og	-148
▁com	-149
▁do	-150
▁but	-151
▁driver	-152
▁as	-153
▁vot	-154
▁will	-155
ust	-156
▁wor	-157
▁because	-158
um	-159
▁Th	-160
▁pro	-161
pp	-162
▁ma	-163
fe	-164
▁W	-165
oun	-166
▁se	-167
▁more	-168
▁if	-169
ul	-170
out	-171
am	-172
▁there	-173
▁us	-174
▁stud	-175
▁like	-176
▁all	-177
▁M	-178
and	-179
ving	-180
▁elect	-181
▁so	-182
ant	-183
very	-184
▁at	-185
ci	-186
▁F	-187
▁by	-188
ation	-189
ven	-190
ble	-191
od	-192
ght	-193
ate	-194
▁get	-195
▁k	-196
ally	-197
so	-198
ag	-199
▁has	-200
▁de	-201
elp	-202
▁help	-203
▁pre	-204
ter	-205
▁ch	-206
▁just	-207
ars	-208
▁exp	-209
ents	-210
em	-211
king	-212
▁comp	-213
any	-214
ace	-215
one	-216
▁ar	-217
▁In	-218
▁cl	-219
est	-220
▁sa	-221
▁how	-222
ates	-223
▁fe	-224
▁about	-225
ans	-226
▁some	-227
▁their	-228
▁su	-229
▁what	-230
ays	-231
▁ta	-232
ist	-233
os	-234
▁should	-235
ens	-236
if	-237
▁plan	-238
ive	-239
olog	-240
▁thin	-241
▁le	-242
chn	-243
ort	-244
▁em	-245
▁also	-246
▁when	-247
▁kn	-248
rom	-249
▁our	-250
▁hum	-251
oral	-252
ology	-253
sid	-254
▁N	-255
▁think	-256
▁techn	-257
▁tim	-258
▁he	-259
▁un	-260
▁them	-261
▁planet	-262
▁know	-263
il	-264
ity	-265
▁driverless	-266
up	-267
ain	-268
▁B	-269
▁This	-270
▁tr	-271
▁thing	-272
▁your	-273
▁many	-274
▁P	-275
▁en	-276
▁po	-277
▁out	-278
ang	-279
ther	-280
▁It	-281
olle	-282
▁technology	-283
art	-284
▁aut	-285
ore	-286
▁one	-287
▁from	-288
ass	-289
▁even	-290
▁need	-291
ound	-292
ck	-293
arth	-294
▁D	-295
▁vote	-296
de	-297
ough	-298
▁up	-299
ces	-300
ollege	-301
▁im	-302
ors	-303
▁who	-304
orm	-305
."	-306
age	-307
yst	-308
ach	-309
▁emot	-310
her	-311
li	-312
▁sp	-313
ystem	-314
▁make	-315
are	-316
▁me	-317
▁face	-318
reat	-319
all	-320
▁H	-321
ig	-322
▁see	-323
▁way	-324
qu	-325
ile	-326
▁time	-327
▁r	-328
cc	-329
▁lo	-330
▁ro	-331
nt	-332
ous	-333
▁other	-334
▁comput	-335
▁auth	-336
▁want	-337
icle	-338
▁states	-339
ason	-340
▁no	-341
▁any	-342
▁may	-343
▁use	-344
sident	-345
form	-346
▁reason	-347
▁author	-348
▁L	-349
here	-350
ong	-351
▁why	-352
▁int	-353
▁than	-354
▁happ	-355
ves	-356
▁every	-357
▁land	-358
▁driving	-359
ight	-360
▁ad	-361
ount	-362
▁its	-363
ress	-364
▁new	-365
▁don	-366
▁sm	-367
▁were	-368
omet	-369
▁very	-370
hing	-371
▁human	-372
▁Wh	-373
▁feel	-374
▁good	-375
▁these	-376
▁only	-377
▁If	-378
ose	-379
▁students	-380
▁O	-381
ind	-382
▁ide	-383
ies	-384
▁over	-385
▁been	-386
▁somet	-387
ich	-388
▁2	-389
▁dang	-390
ok	-391
▁1	-392
▁take	-393
▁system	-394
ment	-395
▁drive	-396
ast	-397
end	-398
▁Mars	-399
▁per	-400
▁art	-401
our	-402
▁then	-403
▁things	-404
ying	-405
▁Earth	-406
▁world	-407
▁president	-408
▁had	-409
▁less	-410
▁ali	-411
cial	-412
ue	-413
▁life	-414
able	-415
ide	-416
rap	-417
▁bet	-418
▁most	-419
▁Elect	-420
▁sur	-421
iz	-422
ep	-423
der	-424
▁imp	-425
▁being	-426
▁idea	-427
cture	-428
oy	-429
ting	-430
▁mu	-431
00	-432
▁computer	-433
ree	-434
▁show	-435
▁say	-436
▁class	-437
▁work	-438
▁Electoral	-439
▁expl	-440
▁acc	-441
ple	-442
▁able	-443
raph	-444
ated	-445
SA	-446
ard	-447
▁G	-448
▁emotions	-449
▁am	-450
ASA	-451
▁much	-452
▁pers	-453
ff	-454
vel	-455
▁electoral	-456
▁par	-457
▁going	-458
pe	-459
ction	-460
▁still	-461
▁mad	-462
▁dif	-463
▁really	-464
▁tra	-465
red	-466
▁pi	-467
ft	-468
ance	-469
▁article	-470
▁NASA	-471
ine	-472
▁There	-473
▁read	-474
▁which	-475
▁College	-476
other	-477
lie	-478
ert	-479
▁ri	-480
cl	-481
▁something	-482
▁better	-483
▁person	-484
▁teach	-485
cent	-486
agraph	-487
▁Al	-488
▁belie	-489
▁dis	-490
ution	-491
▁made	-492
▁pop	-493
ular	-494
ence	-495
▁Y	-496
ame	-497
cient	-498
▁ag	-499
ool	-500
▁landform	-501
▁around	-502
▁tell	-503
▁cont	-504
kes	-505
ost	-506
du	-507
▁They	-508
▁into	-509
..	-510
▁does	-511
▁student	-512
pport	-513
▁day	-514
▁great	-515
▁jo	-516
▁look	-517
ning	-518
▁my	-519
▁act	-520
▁We	-521
ful	-522
▁An	-523
▁count	-524
▁humans	-525
boy	-526
rent	-527
pt	-528
led	-529
▁road	-530
▁believe	-531
owboy	-532
▁college	-533
ess	-534
▁U	-535
ram	-536
▁part	-537
ry	-538
▁form	-539
als	-540
ult	-541
▁says	-542
▁electors	-543
▁votes	-544
elf	-545
▁picture	-546
▁Se	-547
oing	-548
▁ke	-549
▁percent	-550
▁where	-551
▁lot	-552
xt	-553
▁might	-554
▁res	-555
ab	-556
mit	-557
ange	-558
ase	-559
ature	-560
▁such	-561
▁adv	-562
ect	-563
▁state	-564
▁diffe	-565
▁ye	-566
▁sim	-567
▁paragraph	-568
cientist	-569
ample	-570
int	-571
▁R	-572
▁did	-573
ub	-574
agoing	-575
▁accid	-576
room	-577
▁So	-578
▁now	-579
own	-580
▁(	-581
▁express	-582
wn	-583
ond	-584
▁danger	-585
blem	-586
irst	-587
ack	-588
▁qu	-589
ite	-590
▁But	-591
▁classroom	-592
▁lear	-593
ible	-594
▁problem	-595
▁venus	-596
ks	-597
▁nat	-598
▁des	-599
▁fact	-600
ually	-601
▁said	-602
river	-603
▁limit	-604
face	-605
▁prog	-606
thing	-607
▁ca	-608
▁comm	-609
▁keep	-610
▁popular	-611
chool	-612
▁change	-613
▁Face	-614
ial	-615
▁aliens	-616
ice	-617
▁dec	-618
▁You	-619
dit	-620
ways	-621
▁well	-622
▁emotion	-623
vid	-624
te	-625
igh	-626
▁poll	-627
▁safe	-628
pl	-629
▁under	-630
riverless	-631
ural	-632
▁example	-633
▁air	-634
ef	-635
▁different	-636
▁his	-637
▁school	-638
fa	-639
▁St	-640
▁having	-641
▁ph	-642
▁val	-643
per	-644
ced	-645
▁support	-646
▁happen	-647
▁.	-648
▁Cowboy	-649
▁program	-650
▁someone	-651
▁3	-652
▁la	-653
▁poss	-654
▁On	-655
day	-656
be	-657
▁earth	-658
ord	-659
▁,	-660
▁fun	-661
▁own	-662
▁used	-663
usion	-664
fect	-665
▁saf	-666
▁natural	-667
▁scientist	-668
▁feeling	-669
▁creat	-670
▁Fa	-671
▁off	-672
ren	-673
▁aw	-674
▁cr	-675
▁fut	-676
▁cit	-677
▁usage	-678
port	-679
▁ben	-680
▁cand	-681
les	-682
▁gas	-683
▁worth	-684
▁wr	-685
used	-686
▁pass	-687
▁Seagoing	-688
▁surface	-689
ier	-690
cess	-691
▁big	-692
ince	-693
ety	-694
▁election	-695
▁ve	-696
oney	-697
▁fo	-698
▁eas	-699
ention	-700
ie	-701
▁tw	-702
stand	-703
▁candid	-704
allen	-705
▁money	-706
eric	-707
▁thr	-708
fter	-709
▁Also	-710
ical	-711
▁space	-712
▁future	-713
The	-714
▁anim	-715
osp	-716
▁too	-717
▁down	-718
ia	-719
▁reasons	-720
▁point	-721
▁long	-722
iss	-723
▁concl	-724
▁With	-725
▁trans	-726
ffic	-727
ited	-728
▁att	-729
▁times	-730
▁gi	-731
ize	-732
▁find	-733
▁right	-734
lic	-735
ip	-736
▁inst	-737
aces	-738
▁dont	-739
▁condit	-740
▁env	-741
ire	-742
▁bu	-743
▁study	-744
▁dangers	-745
▁gr	-746
▁put	-747
▁high	-748
▁sol	-749
act	-750
▁actually	-751
ese	-752
ign	-753
ating	-754
oding	-755
ick	-756
▁veh	-757
▁always	-758
▁win	-759
ove	-760
▁man	-761
ations	-762
▁allow	-763
▁using	-764
▁another	-765
▁understand	-766
▁without	-767
▁det	-768
▁those	-769
▁first	-770
fore	-771
▁conf	-772
▁Driverless	-773
uke	-774
▁atm	-775
".	-776
▁Am	-777
▁app	-778
▁animals	-779
▁That	-780
▁pollution	-781
▁alien	-782
ib	-783
▁tal	-784
▁won	-785
▁real	-786
lo	-787
su	-788
▁back	-789
▁facial	-790
▁cause	-791
▁years	-792
▁through	-793
▁vehicle	-794
▁same	-795
▁while	-796
▁bad	-797
,"	-798
▁voting	-799
▁cle	-800
ber	-801
▁conditions	-802
▁For	-803
▁contro	-804
▁cal	-805
▁spe	-806
▁drivers	-807
▁Americ	-808
▁sens	-809
▁atmosp	-810
ored	-811
▁19	-812
oring	-813
▁Un	-814
▁5	-815
▁start	-816
ought	-817
▁transport	-818
▁shows	-819
▁cam	-820
▁rec	-821
ffect	-822
▁benef	-823
▁As	-824
▁few	-825
▁place	-826
ower	-827
ger	-828
▁learn	-829
▁dangerous	-830
▁devel	-831
▁lesson	-832
ved	-833
▁making	-834
vent	-835
▁join	-836
▁When	-837
ious	-838
▁Coding	-839
▁ac	-840
atures	-841
▁9	-842
▁come	-843
▁Luke	-844
▁develop	-845
▁conclusion	-846
ru	-847
▁inform	-848
).	-849
▁text	-850
▁op	-851
▁These	-852
▁places	-853
▁Facial	-854
▁again	-855
▁smog	-856
▁ways	-857
▁getting	-858
▁happy	-859
ull	-860
▁created	-861
▁voters	-862
ense	-863
ian	-864
▁Action	-865
▁System	-866
▁He	-867
▁Some	-868
▁redu	-869
ource	-870
▁though	-871
ware	-872
▁everyone	-873
erm	-874
▁stop	-875
over	-876
ever	-877
▁wal	-878
ron	-879
▁pay	-880
iv	-881
▁enough	-882
▁bo	-883
▁whe	-884
▁200	-885
▁seem	-886
tle	-887
▁clos	-888
▁each	-889
▁trying	-890
▁pur	-891
▁Ch	-892
ertain	-893
▁teacher	-894
ries	-895
▁accidents	-896
▁computers	-897
▁doing	-898
sel	-899
ily	-900
▁control	-901
▁job	-902
▁soft	-903
▁become	-904
▁envir	-905
▁challen	-906
ouse	-907
read	-908
cond	-909
▁wrong	-910
▁mus	-911
▁phot	-912
▁dist	-913
sent	-914
▁sit	-915
ary	-916
▁tem	-917
unity	-918
▁bored	-919
jor	-920
ise	-921
ublic	-922
▁two	-923
▁best	-924
▁let	-925
▁software	-926
▁studying	-927
▁prob	-928
▁bl	-929
uro	-930
pite	-931
ages	-932
▁law	-933
▁mes	-934
▁met	-935
▁bas	-936
▁ever	-937
▁got	-938
▁after	-939
▁J	-940
▁cho	-941
▁Par	-942
▁major	-943
▁rock	-944
▁explain	-945
urn	-946
▁People	-947
ets	-948
▁evid	-949
▁attention	-950
▁information	-951
▁close	-952
ac	-953
▁found	-954
▁hard	-955
▁import	-956
ify	-957
▁lead	-958
ather	-959
▁rese	-960
ared	-961
▁transportation	-962
riend	-963
ater	-964
▁anything	-965
imes	-966
▁hand	-967
oming	-968
▁How	-969
▁since	-970
▁traffic	-971
▁city	-972
▁musc	-973
▁travel	-974
▁scientists	-975
selves	-976
▁Cars	-977
▁expressions	-978
▁4	-979
▁And	-980
▁Cowboys	-981
▁give	-982
▁bus	-983
▁end	-984
▁ris	-985
▁evidence	-986
▁mesa	-987
iting	-988
▁last	-989
▁United	-990
▁run	-991
thers	-992
oud	-993
▁tri	-994
▁8	-995
ably	-996
▁today	-997
▁never	-998
▁thought	-999
▁far	-1000
▁live	-1001
▁Another	-1002
▁teachers	-1003
raft	-1004
▁important	-1005
▁amount	-1006
▁care	-1007
▁atmosphere	-1008
ild	-1009
▁confused	-1010
▁candidate	-1011
ish	-1012
arch	-1013
ner	-1014
iles	-1015
ix	-1016
▁lar	-1017
▁country	-1018
▁mod	-1019
▁means	-1020
▁needs	-1021
▁el	-1022
▁States	-1023
▁effect	-1024
▁valu	-1025
▁exper	-1026
▁What	-1027
▁impro	-1028
ied	-1029
▁mean	-1030
▁num	-1031
▁before	-1032
▁comple	-1033
▁sensors	-1034
▁problems	-1035
▁Even	-1036
▁test	-1037
▁public	-1038
▁makes	-1039
▁possible	-1040
▁ext	-1041
▁press	-1042
▁working	-1043
▁ob	-1044
▁despite	-1045
▁away	-1046
▁disc	-1047
▁called	-1048
gest	-1049
ids	-1050
▁others	-1051
▁friend	-1052
ead	-1053
ject	-1054
rest	-1055
ons	-1056
AC	-1057
▁stress	-1058
▁ban	-1059
▁br	-1060
▁Many	-1061
▁cons	-1062
▁benefit	-1063
most	-1064
▁worthy	-1065
gre	-1066
▁safety	-1067
▁inv	-1068
▁pressure	-1069
ording	-1070
ys	-1071
▁citiz	-1072
▁explore	-1073
▁sk	-1074
▁move	-1075
ready	-1076
▁home	-1077
ath	-1078
▁valuable	-1079
ACS	-1080
alf	-1081
ically	-1082
...	-1083
reen	-1084
ory	-1085
ken	-1086
ave	-1087
▁already	-1088
▁accident	-1089
▁fam	-1090
▁ass	-1091
▁sc	-1092
▁advant	-1093
▁pos	-1094
ty	-1095
ufa	-1096
▁try	-1097
az	-1098
▁chang	-1099
▁arg	-1100
▁themselves	-1101
▁countries	-1102
▁sad	-1103
▁sure	-1104
▁cre	-1105
▁To	-1106
▁due	-1107
▁process	-1108
▁6	-1109
though	-1110
ows	-1111
urope	-1112
ash	-1113
▁turn	-1114
gin	-1115
ative	-1116
▁Be	-1117
▁alert	-1118
ility	-1119
ona	-1120
▁sub	-1121
▁probably	-1122
▁temper	-1123
▁once	-1124
ogn	-1125
▁Pre	-1126
aim	-1127
▁vis	-1128
▁FACS	-1129
▁maybe	-1130
▁limiting	-1131
▁three	-1132
▁certain	-1133
▁passage	-1134
we	-1135
onment	-1136
▁pursu	-1137
▁One	-1138
▁clear	-1139
▁wouldn	-1140
▁wheel	-1141
▁carb	-1142
▁reg	-1143
▁self	-1144
▁stre	-1145
craft	-1146
▁rep	-1147
▁Not	-1148
oth	-1149
▁sometimes	-1150
▁inte	-1151
▁Paris	-1152
▁equ	-1153
av	-1154
grees	-1155
ual	-1156
▁manufa	-1157
ak	-1158
▁likely	-1159
▁requ	-1160
ike	-1161
▁alot	-1162
▁claim	-1163
▁posit	-1164
▁ty	-1165
▁surv	-1166
▁degrees	-1167
▁camer	-1168
▁Europe	-1169
▁citizens	-1170
ten	-1171
▁Pl	-1172
io	-1173
ics	-1174
▁sl	-1175
clud	-1176
uring	-1177
▁research	-1178
▁second	-1179
▁environment	-1180
▁muscles	-1181
ody	-1182
fair	-1183
▁fin	-1184
▁almost	-1185
▁opin	-1186
bal	-1187
▁cloud	-1188
fic	-1189
▁recogn	-1190
▁President	-1191
▁mars	-1192
▁pri	-1193
▁took	-1194
ities	-1195
▁play	-1196
▁resp	-1197
▁unfair	-1198
▁pursuit	-1199
▁ra	-1200
▁lit	-1201
issions	-1202
▁him	-1203
▁days	-1204
▁crash	-1205
▁miles	-1206
▁simil	-1207
ps	-1208
▁features	-1209
▁spacecraft	-1210
▁pol	-1211
▁itself	-1212
old	-1213
▁stated	-1214
▁chance	-1215
▁doesn	-1216
▁solar	-1217
▁taking	-1218
like	-1219
▁possib	-1220
▁emotional	-1221
ments	-1222
uri	-1223
▁isn	-1224
▁Dr	-1225
atch	-1226
▁taken	-1227
ake	-1228
▁laws	-1229
▁inc	-1230
▁includ	-1231
ists	-1232
cing	-1233
▁power	-1234
▁commun	-1235
▁experi	-1236
▁interest	-1237
▁large	-1238
▁next	-1239
▁smart	-1240
▁lives	-1241
▁ind	-1242
▁'	-1243
▁learning	-1244
me	-1245
▁imag	-1246
▁green	-1247
▁detect	-1248
▁safer	-1249
▁side	-1250
the	-1251
▁kind	-1252
▁cities	-1253
▁Although	-1254
▁occ	-1255
▁similar	-1256
cts	-1257
▁against	-1258
▁mach	-1259
uang	-1260
▁oce	-1261
▁challeng	-1262
▁little	-1263
▁saying	-1264
iking	-1265
▁smile	-1266
▁whole	-1267
▁year	-1268
▁ey	-1269
▁near	-1270
▁hot	-1271
isa	-1272
▁bring	-1273
▁everything	-1274
▁cor	-1275
▁save	-1276
arm	-1277
▁situ	-1278
▁small	-1279
▁talk	-1280
ina	-1281
iver	-1282
▁manufacture	-1283
ota	-1284
of	-1285
▁above	-1286
▁reduce	-1287
▁shad	-1288
▁foc	-1289
▁quest	-1290
▁instead	-1291
▁helping	-1292
▁Now	-1293
▁sign	-1294
▁hop	-1295
▁av	-1296
▁improve	-1297
▁complete	-1298
▁here	-1299
▁stay	-1300
▁easier	-1301
▁pictures	-1302
▁Ex	-1303
ned	-1304
ote	-1305
▁becoming	-1306
▁cost	-1307
▁roads	-1308
ogle	-1309
▁autom	-1310
▁else	-1311
side	-1312
atter	-1313
▁send	-1314
▁Car	-1315
▁light	-1316
▁opport	-1317
ully	-1318
▁Huang	-1319
▁forms	-1320
uge	-1321
▁All	-1322
ument	-1323
ives	-1324
▁common	-1325
▁Go	-1326
▁const	-1327
▁appe	-1328
▁walk	-1329
▁visit	-1330
▁she	-1331
oc	-1332
hod	-1333
▁emissions	-1334
▁fault	-1335
▁needed	-1336
ones	-1337
▁fig	-1338
no	-1339
ines	-1340
self	-1341
▁produ	-1342
▁America	-1343
▁def	-1344
ames	-1345
ute	-1346
▁dep	-1347
▁comes	-1348
ob	-1349
▁meet	-1350
ured	-1351
▁rem	-1352
▁extre	-1353
la	-1354
▁Mona	-1355
▁tax	-1356
▁must	-1357
▁opinion	-1358
▁However	-1359
▁Lisa	-1360
▁kids	-1361
▁pres	-1362
▁goes	-1363
▁fu	-1364
house	-1365
▁done	-1366
ness	-1367
aub	-1368
ract	-1369
▁Te	-1370
oking	-1371
▁soci	-1372
▁driveless	-1373
▁ent	-1374
▁nothing	-1375
▁carbon	-1376
▁risk	-1377
▁number	-1378
▁vehicles	-1379
▁ask	-1380
▁candidates	-1381
overed	-1382
get	-1383
▁true	-1384
heit	-1385
▁gen	-1386
rib	-1387
▁experience	-1388
▁Col	-1389
▁mon	-1390
ogota	-1391
▁recognize	-1392
▁hour	-1393
ew	-1394
▁fuel	-1395
▁require	-1396
resent	-1397
ensive	-1398
▁opportunity	-1399
▁neg	-1400
▁source	-1401
auban	-1402
lobal	-1403
▁method	-1404
ail	-1405
tern	-1406
cer	-1407
▁First	-1408
▁wa	-1409
where	-1410
▁closest	-1411
ption	-1412
▁thats	-1413
▁games	-1414
not	-1415
▁image	-1416
▁ins	-1417
▁mill	-1418
▁decre	-1419
▁sun	-1420
▁both	-1421
▁watch	-1422
▁easy	-1423
ination	-1424
ward	-1425
▁bra	-1426
▁fair	-1427
▁planets	-1428
▁Expl	-1429
▁cap	-1430
▁didn	-1431
▁advan	-1432
man	-1433
▁greenhouse	-1434
▁looking	-1435
urb	-1436
▁limited	-1437
▁reading	-1438
▁her	-1439
▁free	-1440
▁amaz	-1441
▁schools	-1442
alth	-1443
iness	-1444
▁huge	-1445
▁Then	-1446
ccording	-1447
▁completely	-1448
▁seen	-1449
▁photo	-1450
sider	-1451
▁extreme	-1452
▁dr	-1453
▁Bogota	-1454
hren	-1455
▁expression	-1456
▁contin	-1457
idd	-1458
▁advantages	-1459
▁cowboy	-1460
▁7	-1461
▁che	-1462
▁child	-1463
",	-1464
▁var	-1465
▁helps	-1466
ired	-1467
ply	-1468
don	-1469
ified	-1470
riving	-1471
atic	-1472
▁ship	-1473
▁China	-1474
▁exploring	-1475
▁By	-1476
▁level	-1477
ted	-1478
▁rather	-1479
▁partic	-1480
gy	-1481
oll	-1482
▁Vauban	-1483
enat	-1484
▁survive	-1485
▁manufacturer	-1486
▁wanted	-1487
▁society	-1488
▁My	-1489
▁inno	-1490
▁takes	-1491
▁800	-1492
▁agree	-1493
▁gives	-1494
▁Why	-1495
▁matter	-1496
▁id	-1497
▁rid	-1498
urther	-1499
bia	-1500
▁head	-1501
▁seems	-1502
▁oceans	-1503
cy	-1504
body	-1505
▁2001	-1506
▁result	-1507
▁20	-1508
▁eyes	-1509
▁create	-1510
▁amazing	-1511
▁old	-1512
donia	-1513
▁Germ	-1514
▁begin	-1515
▁simply	-1516
▁majority	-1517
artian	-1518
hrenheit	-1519
▁everyday	-1520
▁ago	-1521
▁fas	-1522
▁type	-1523
▁looks	-1524
▁Well	-1525
▁aver	-1526
▁communic	-1527
▁health	-1528
uff	-1529
▁opp	-1530
▁gets	-1531
▁half	-1532
urt	-1533
▁yet	-1534
▁positive	-1535
ydonia	-1536
▁aren	-1537
▁driven	-1538
outh	-1539
▁giving	-1540
▁ser	-1541
▁Exploring	-1542
pped	-1543
zy	-1544
▁sound	-1545
▁camera	-1546
▁main	-1547
▁size	-1548
▁sent	-1549
▁lower	-1550
ational	-1551
▁mind	-1552
▁According	-1553
▁spend	-1554
▁fr	-1555
▁choose	-1556
▁shadows	-1557
ween	-1558
▁innov	-1559
▁supports	-1560
aving	-1561
▁winner	-1562
▁respons	-1563
na	-1564
▁walking	-1565
▁fail	-1566
▁case	-1567
▁dev	-1568
▁explains	-1569
fer	-1570
▁90	-1571
▁cannot	-1572
▁Viking	-1573
▁streets	-1574
ball	-1575
▁sug	-1576
▁Google	-1577
aking	-1578
▁present	-1579
▁facts	-1580
▁during	-1581
ains	-1582
▁lic	-1583
owing	-1584
▁rest	-1585
▁trust	-1586
▁consider	-1587
ng	-1588
▁miss	-1589
ither	-1590
▁went	-1591
oid	-1592
▁anyone	-1593
ross	-1594
▁dest	-1595
▁closer	-1596
more	-1597
▁between	-1598
ush	-1599
▁effective	-1600
▁beh	-1601
▁pe	-1602
▁Cydonia	-1603
ulation	-1604
▁helpful	-1605
xide	-1606
free	-1607
▁wee	-1608
oment	-1609
▁gener	-1610
▁mar	-1611
▁living	-1612
Th	-1613
▁Do	-1614
▁development	-1615
icial	-1616
▁Most	-1617
▁caus	-1618
▁cool	-1619
▁dio	-1620
cause	-1621
▁average	-1622
▁ru	-1623
▁suggest	-1624
ts	-1625
▁order	-1626
▁ones	-1627
▁focus	-1628
▁str	-1629
▁hope	-1630
▁temperature	-1631
▁camp	-1632
▁American	-1633
▁formation	-1634
▁ident	-1635
▁presents	-1636
▁fre	-1637
▁hold	-1638
▁vide	-1639
pr	-1640
▁greater	-1641
ime	-1642
enator	-1643
▁clouds	-1644
▁useful	-1645
▁dioxide	-1646
▁er	-1647
aly	-1648
▁speed	-1649
▁prove	-1650
▁issu	-1651
▁add	-1652
ear	-1653
▁figure	-1654
▁gover	-1655
acy	-1656
▁top	-1657
▁supp	-1658
ap	-1659
▁given	-1660
▁ground	-1661
ased	-1662
▁bre	-1663
▁issues	-1664
nment	-1665
ruct	-1666
▁possibly	-1667
to	-1668
▁buy	-1669
ings	-1670
▁enj	-1671
▁challenge	-1672
▁question	-1673
▁challenging	-1674
▁along	-1675
anies	-1676
▁fear	-1677
▁ride	-1678
▁represent	-1679
▁Every	-1680
ades	-1681
▁curi	-1682
▁mot	-1683
▁distance	-1684
▁Challen	-1685
▁supported	-1686
▁While	-1687
vey	-1688
▁ang	-1689
▁inj	-1690
▁197	-1691
▁199	-1692
▁mount	-1693
▁prom	-1694
▁dire	-1695
▁exc	-1696
▁negative	-1697
▁Last	-1698
▁K	-1699
▁sing	-1700
pri	-1701
con	-1702
▁worry	-1703
▁model	-1704
▁landforms	-1705
▁pain	-1706
▁wants	-1707
▁seeing	-1708
▁ideas	-1709
▁expensive	-1710
▁situation	-1711
gust	-1712
▁1976	-1713
▁faces	-1714
▁set	-1715
▁friends	-1716
▁campa	-1717
Wh	-1718
stron	-1719
▁pick	-1720
▁After	-1721
▁happier	-1722
sw	-1723
▁night	-1724
▁famil	-1725
▁party	-1726
▁presidential	-1727
iment	-1728
▁cast	-1729
▁talks	-1730
▁Just	-1731
▁story	-1732
for	-1733
wh	-1734
▁harm	-1735
▁Challenge	-1736
▁elections	-1737
ional	-1738
▁boat	-1739
It	-1740
ital	-1741
▁dem	-1742
▁cent	-1743
vin	-1744
▁Re	-1745
▁past	-1746
▁modify	-1747
▁electron	-1748
▁behind	-1749
▁bel	-1750
▁hit	-1751
osing	-1752
iew	-1753
ocr	-1754
▁sw	-1755
▁fine	-1756
▁single	-1757
▁desc	-1758
▁coming	-1759
▁incre	-1760
▁fav	-1761
▁aware	-1762
▁97	-1763
▁often	-1764
▁Martian	-1765
ient	-1766
▁war	-1767
▁simple	-1768
▁either	-1769
ird	-1770
▁Or	-1771
ork	-1772
▁based	-1773
▁Im	-1774
▁knows	-1775
▁uses	-1776
▁value	-1777
▁prevent	-1778
akes	-1779
▁companies	-1780
▁developed	-1781
hip	-1782
▁covered	-1783
▁foll	-1784
▁hours	-1785
▁hover	-1786
▁At	-1787
▁rad	-1788
▁slate	-1789
▁tru	-1790
▁knowing	-1791
▁campaign	-1792
▁happens	-1793
▁advanced	-1794
ures	-1795
▁personal	-1796
▁toward	-1797
▁trip	-1798
▁cat	-1799
▁enjoy	-1800
▁weather	-1801
sue	-1802
▁water	-1803
▁soon	-1804
cul	-1805
▁sea	-1806
▁avoid	-1807
▁thinking	-1808
▁plant	-1809
▁bike	-1810
▁hurt	-1811
▁Since	-1812
sing	-1813
come	-1814
▁Sm	-1815
ides	-1816
▁pot	-1817
▁mouth	-1818
▁presid	-1819
▁store	-1820
▁diffic	-1821
its	-1822
▁known	-1823
▁various	-1824
▁pr	-1825
▁lif	-1826
cially	-1827
▁machine	-1828
ges	-1829
▁Fahrenheit	-1830
▁deal	-1831
▁appro	-1832
▁angry	-1833
ah	-1834
▁canid	-1835
vious	-1836
▁Fr	-1837
▁Scientist	-1838
▁temperatures	-1839
ivid	-1840
ledge	-1841
▁Germany	-1842
▁identify	-1843
▁acid	-1844
▁unt	-1845
▁pret	-1846
▁depend	-1847
▁difficult	-1848
▁family	-1849
ama	-1850
cept	-1851
ency	-1852
uase	-1853
▁Because	-1854
▁trips	-1855
ank	-1856
▁leg	-1857
▁cant	-1858
▁video	-1859
▁paying	-1860
▁caused	-1861
▁decide	-1862
▁direct	-1863
▁gu	-1864
▁skill	-1865
▁classrooms	-1866
▁interesting	-1867
▁butte	-1868
▁food	-1869
ne	-1870
rop	-1871
▁happened	-1872
70	-1873
''	-1874
▁community	-1875
oub	-1876
▁further	-1877
▁population	-1878
▁No	-1879
▁dens	-1880
omers	-1881
ues	-1882
▁ready	-1883
▁compared	-1884
pril	-1885
▁fle	-1886
▁select	-1887
cks	-1888
▁fix	-1889
▁detail	-1890
▁Like	-1891
ling	-1892
aters	-1893
▁love	-1894
▁object	-1895
▁malf	-1896
▁bri	-1897
▁suc	-1898
rence	-1899
▁norm	-1900
▁tou	-1901
▁France	-1902
heric	-1903
ished	-1904
▁2000	-1905
▁ill	-1906
▁event	-1907
▁came	-1908
▁issue	-1909
ape	-1910
uth	-1911
▁highly	-1912
▁individ	-1913
atives	-1914
▁clean	-1915
▁non	-1916
▁Second	-1917
icy	-1918
oration	-1919
▁photos	-1920
▁left	-1921
▁reve	-1922
ked	-1923
▁ste	-1924
▁Colom	-1925
▁web	-1926
▁pretty	-1927
ific	-1928
duc	-1929
pect	-1930
▁ten	-1931
▁Its	-1932
▁polit	-1933
▁open	-1934
▁shouldn	-1935
leep	-1936
▁mission	-1937
▁gain	-1938
▁heat	-1939
▁advent	-1940
▁stuff	-1941
▁reli	-1942
▁tells	-1943
▁Dear	-1944
▁four	-1945
▁becuase	-1946
▁Is	-1947
▁build	-1948
reece	-1949
▁prov	-1950
▁instruct	-1951
▁seagoing	-1952
aut	-1953
▁cut	-1954
▁cour	-1955
▁malfun	-1956
▁started	-1957
▁benefits	-1958
▁tie	-1959
▁doub	-1960
▁changed	-1961
▁handle	-1962
▁pollut	-1963
▁provid	-1964
ats	-1965
ision	-1966
▁educ	-1967
▁25	-1968
olution	-1969
▁es	-1970
leys	-1971
▁Are	-1972
▁potent	-1973
ell	-1974
und	-1975
▁knowledge	-1976
▁proof	-1977
▁basic	-1978
▁continue	-1979
▁eng	-1980
▁term	-1981
▁exact	-1982
▁April	-1983
▁suburb	-1984
▁disgust	-1985
▁call	-1986
▁according	-1987
▁advantage	-1988
▁young	-1989
▁strong	-1990
ins	-1991
ctions	-1992
▁Having	-1993
000	-1994
▁stru	-1995
▁responsible	-1996
orses	-1997
▁parts	-1998
▁speci	-1999
▁Yes	-2000
bit	-2001
cin	-2002
▁million	-2003
▁beneficial	-2004
▁communication	-2005
▁favor	-2006
▁affect	-2007
pecially	-2008
▁points	-2009
▁Which	-2010
▁helped	-2011
iddle	-2012
iling	-2013
ition	-2014
▁Stud	-2015
ocratic	-2016
▁Without	-2017
▁provide	-2018
▁bi	-2019
▁Wor	-2020
▁pix	-2021
▁whether	-2022
way	-2023
▁da	-2024
ices	-2025
▁later	-2026
▁Pro	-2027
▁tested	-2028
▁occur	-2029
rive	-2030
▁qual	-2031
▁inter	-2032
ands	-2033
▁house	-2034
▁wont	-2035
▁imagine	-2036
chnology	-2037
▁ev	-2038
▁valleys	-2039
?"	-2040
▁ed	-2041
▁feelings	-2042
▁cur	-2043
▁areas	-2044
▁mountains	-2045
▁jobs	-2046
▁risks	-2047
▁children	-2048
▁six	-2049
stronomers	-2050
▁tech	-2051
▁yourself	-2052
▁lots	-2053
▁craters	-2054
▁density	-2055
ury	-2056
▁toget	-2057
▁step	-2058
In	-2059
▁weeks	-2060
▁answ	-2061
▁quick	-2062
▁truly	-2063
▁keeping	-2064
head	-2065
osity	-2066
▁death	-2067
▁telling	-2068
▁repl	-2069
▁mess	-2070
▁least	-2071
▁Fin	-2072
▁sense	-2073
▁priv	-2074
▁government	-2075
▁horses	-2076
▁cou	-2077
▁landing	-2078
▁together	-2079
orts	-2080
▁insight	-2081
▁license	-2082
par	-2083
▁lost	-2084
▁option	-2085
▁perfect	-2086
Face	-2087
▁May	-2088
ouble	-2089
▁particip	-2090
▁discover	-2091
▁easily	-2092
▁Ad	-2093
,000	-2094
▁theor	-2095
▁Greece	-2096
▁wonder	-2097
ude	-2098
▁60	-2099
▁Global	-2100
▁longer	-2101
▁allowed	-2102
▁Br	-2103
▁atmospheric	-2104
▁char	-2105
▁leave	-2106
round	-2107
▁World	-2108
▁addit	-2109
▁artif	-2110
put	-2111
▁view	-2112
▁passen	-2113
▁project	-2114
▁wouldnt	-2115
▁blame	-2116
ulf	-2117
▁towards	-2118
▁decrease	-2119
car	-2120
▁cra	-2121
▁advance	-2122
▁requires	-2123
▁pixel	-2124
▁innovation	-2125
chan	-2126
▁systems	-2127
▁talking	-2128
▁solution	-2129
▁however	-2130
▁wasn	-2131
▁thick	-2132
▁until	-2133
▁rele	-2134
▁argument	-2135
▁electronics	-2136
▁Lim	-2137
ister	-2138
ams	-2139
vers	-2140
▁five	-2141
▁''	-2142
▁201	-2143
▁ahead	-2144
▁showing	-2145
yond	-2146
▁belive	-2147
▁enviroment	-2148
ograph	-2149
▁cattle	-2150
▁winning	-2151
▁changing	-2152
▁curiosity	-2153
▁z	-2154
▁including	-2155
▁fall	-2156
▁monument	-2157
▁formed	-2158
▁proven	-2159
hal	-2160
▁Con	-2161
▁special	-2162
ised	-2163
▁wre	-2164
▁Source	-2165
▁ups	-2166
leg	-2167
▁spot	-2168
ha	-2169
test	-2170
▁Lastly	-2171
▁determ	-2172
▁Sur	-2173
▁War	-2174
▁peoples	-2175
▁waiting	-2176
veyor	-2177
▁ess	-2178
agine	-2179
▁Senator	-2180
▁exist	-2181
▁running	-2182
▁artifact	-2183
▁1998	-2184
▁impact	-2185
can	-2186
▁et	-2187
▁3-	-2188
▁invent	-2189
▁cameras	-2190
▁anger	-2191
▁surpr	-2192
▁trouble	-2193
▁machines	-2194
▁Don	-2195
▁works	-2196
osent	-2197
▁bigger	-2198
▁Would	-2199
▁board	-2200
▁buses	-2201
▁yes	-2202
▁looked	-2203
▁Finally	-2204
▁hovering	-2205
osed	-2206
▁hands	-2207
omes	-2208
▁hide	-2209
▁quote	-2210
▁steer	-2211
▁altern	-2212
▁elector	-2213
▁topic	-2214
▁Technology	-2215
antly	-2216
enses	-2217
osenthal	-2218
ized	-2219
▁instructor	-2220
▁sensor	-2221
▁star	-2222
▁team	-2223
ught	-2224
▁Have	-2225
▁etc	-2226
▁plates	-2227
▁hottest	-2228
iding	-2229
▁fully	-2230
▁touch	-2231
ceed	-2232
▁sulf	-2233
▁flo	-2234
res	-2235
▁od	-2236
▁effic	-2237
oh	-2238
▁reality	-2239
itch	-2240
▁taxis	-2241
▁fascin	-2242
▁normal	-2243
▁allows	-2244
▁factor	-2245
umer	-2246
▁terms	-2247
oes	-2248
dated	-2249
▁break	-2250
cel	-2251
orn	-2252
ros	-2253
▁reci	-2254
▁waste	-2255
ink	-2256
▁automob	-2257
▁30	-2258
▁mechan	-2259
ph	-2260
ivil	-2261
iesel	-2262
▁global	-2263
▁stand	-2264
▁meaning	-2265
ilt	-2266
▁rel	-2267
▁benif	-2268
▁tense	-2269
▁course	-2270
▁typ	-2271
▁list	-2272
▁anymore	-2273
▁Limiting	-2274
▁Can	-2275
▁lose	-2276
▁stri	-2277
▁Over	-2278
▁truth	-2279
ources	-2280
▁ir	-2281
▁assist	-2282
ict	-2283
▁current	-2284
▁co	-2285
▁exploration	-2286
▁action	-2287
▁base	-2288
▁town	-2289
▁mention	-2290
Venus	-2291
RA	-2292
ival	-2293
work	-2294
▁subject	-2295
▁voted	-2296
▁expand	-2297
▁describ	-2298
oss	-2299
▁pros	-2300
▁defin	-2301
▁doesnt	-2302
▁alone	-2303
▁across	-2304
bered	-2305
Par	-2306
pir	-2307
uric	-2308
▁writ	-2309
▁ability	-2310
enty	-2311
▁Hum	-2312
win	-2313
▁civil	-2314
▁sending	-2315
▁saw	-2316
cle	-2317
▁med	-2318
▁bicy	-2319
▁crashes	-2320
ife	-2321
▁injured	-2322
▁outcome	-2323
▁teaching	-2324
▁enc	-2325
▁area	-2326
▁full	-2327
▁beyond	-2328
▁choice	-2329
▁Therefore	-2330
ped	-2331
▁grou	-2332
▁largely	-2333
ization	-2334
▁regular	-2335
▁situations	-2336
but	-2337
▁gone	-2338
▁accur	-2339
▁bright	-2340
▁decades	-2341
Al	-2342
ases	-2343
▁dre	-2344
▁West	-2345
▁understanding	-2346
▁12	-2347
▁told	-2348
▁complic	-2349
rect	-2350
▁odd	-2351
▁doll	-2352
▁putting	-2353
ood	-2354
▁Who	-2355
▁inde	-2356
▁lazy	-2357
▁shar	-2358
▁eff	-2359
▁resem	-2360
▁challenges	-2361
undred	-2362
▁nation	-2363
▁Surveyor	-2364
▁painting	-2365
▁sulfuric	-2366
▁Colombia	-2367
▁5,	-2368
pects	-2369
▁Com	-2370
xing	-2371
▁rocky	-2372
▁skills	-2373
Driverless	-2374
▁sky	-2375
▁pred	-2376
ration	-2377
▁powerful	-2378
gan	-2379
▁New	-2380
▁feed	-2381
▁ment	-2382
▁$	-2383
▁sci	-2384
▁phone	-2385
▁Maybe	-2386
aced	-2387
▁causes	-2388
▁corros	-2389
▁couldn	-2390
▁concer	-2391
▁sounds	-2392
▁Ne	-2393
▁sil	-2394
▁thinks	-2395
erc	-2396
▁ret	-2397
▁calcul	-2398
▁constru	-2399
▁especially	-2400
▁knew	-2401
▁col	-2402
arvin	-2403
▁fewer	-2404
▁44	-2405
▁Cal	-2406
▁buying	-2407
▁rece	-2408
va	-2409
▁min	-2410
gress	-2411
▁blank	-2412
▁company	-2413
▁ge	-2414
▁happening	-2415
▁Our	-2416
▁som	-2417
ivers	-2418
▁capt	-2419
arent	-2420
▁answer	-2421
▁corrosive	-2422
yle	-2423
▁argue	-2424
▁gases	-2425
▁inside	-2426
▁sample	-2427
▁approach	-2428
▁follow	-2429
▁imagination	-2430
iar	-2431
mar	-2432
▁changes	-2433
▁dam	-2434
▁mov	-2435
umbia	-2436
▁manufacturers	-2437
▁didnt	-2438
▁movements	-2439
▁vol	-2440
▁fast	-2441
▁nice	-2442
▁enfor	-2443
▁muscle	-2444
▁illusion	-2445
▁extremely	-2446
▁bit	-2447
▁aspects	-2448
▁includes	-2449
▁53	-2450
▁bro	-2451
▁contrib	-2452
▁cowboys	-2453
▁throughout	-2454
▁envi	-2455
▁built	-2456
▁Garvin	-2457
▁couple	-2458
▁ref	-2459
▁Imagine	-2460
▁ori	-2461
yball	-2462
▁breat	-2463
▁canidate	-2464
ror	-2465
▁aff	-2466
▁haz	-2467
▁Using	-2468
▁banned	-2469
▁sadness	-2470
▁ped	-2471
▁abol	-2472
▁distract	-2473
▁mist	-2474
▁word	-2475
▁nav	-2476
ousands	-2477
▁50	-2478
▁twin	-2479
▁fails	-2480
▁shown	-2481
▁street	-2482
▁Cong	-2483
▁Somet	-2484
▁Americans	-2485
▁loc	-2486
▁questions	-2487
uck	-2488
▁mechanical	-2489
▁specific	-2490
▁inf	-2491
▁18	-2492
▁diff	-2493
▁mult	-2494
▁creating	-2495
NR	-2496
nis	-2497
▁quite	-2498
ability	-2499
aster	-2500
▁proves	-2501
ront	-2502
asion	-2503
ivalent	-2504
lor	-2505
inds	-2506
ances	-2507
▁entire	-2508
▁exactly	-2509
▁Ob	-2510
rate	-2511
asing	-2512
▁entertain	-2513
ode	-2514
NRRA	-2515
▁claims	-2516
ery	-2517
▁motor	-2518
amed	-2519
▁invention	-2520
ER	-2521
iful	-2522
▁sight	-2523
▁hundred	-2524
▁millions	-2525
▁cha	-2526
▁causing	-2527
ping	-2528
▁brake	-2529
▁surround	-2530
▁statement	-2531
erate	-2532
▁coll	-2533
▁Coming	-2534
▁within	-2535
▁fascinated	-2536
▁destination	-2537
▁Being	-2538
▁higher	-2539
▁necess	-2540
▁difference	-2541
bo	-2542
▁nose	-2543
▁pie	-2544
▁silic	-2545
ley	-2546
▁group	-2547
▁reach	-2548
▁resemble	-2549
▁malfunction	-2550
▁check	-2551
ediment	-2552
ade	-2553
aho	-2554
▁gar	-2555
▁assum	-2556
▁capital	-2557
istic	-2558
▁warm	-2559
▁mater	-2560
▁Paragraph	-2561
▁Scientists	-2562
▁u	-2563
wal	-2564
gypt	-2565
onom	-2566
▁imposs	-2567
▁thier	-2568
▁discus	-2569
▁worked	-2570
▁families	-2571
▁equivalent	-2572
unk	-2573
▁design	-2574
▁reader	-2575
▁Id	-2576
▁Smile	-2577
▁navig	-2578
itution	-2579
▁Ven	-2580
▁baseball	-2581
law	-2582
▁gave	-2583
encing	-2584
▁education	-2585
▁sna	-2586
lorid	-2587
▁extra	-2588
▁moder	-2589
▁actual	-2590
▁safely	-2591
▁outdated	-2592
min	-2593
▁tas	-2594
▁Wal	-2595
▁lets	-2596
imp	-2597
..."	-2598
▁cover	-2599
▁essay	-2600
▁invol	-2601
▁volcan	-2602
▁details	-2603
▁rely	-2604
▁spaces	-2605
▁parking	-2606
▁samples	-2607
omy	-2608
▁irr	-2609
▁americ	-2610
▁researchers	-2611
gers	-2612
▁clearly	-2613
iled	-2614
arter	-2615
ately	-2616
▁prep	-2617
▁pract	-2618
▁reduced	-2619
▁increase	-2620
▁happiness	-2621
etime	-2622
▁argu	-2623
▁doubts	-2624
▁correct	-2625
lorida	-2626
▁silicon	-2627
▁tex	-2628
ckman	-2629
▁temp	-2630
▁Idaho	-2631
▁"...	-2632
piracy	-2633
▁origin	-2634
iforn	-2635
▁host	-2636
▁survived	-2637
sk	-2638
▁technolog	-2639
ially	-2640
▁presented	-2641
take	-2642
▁impossible	-2643
onomous	-2644
▁adventure	-2645
▁Each	-2646
▁UNRRA	-2647
▁accel	-2648
▁modern	-2649
isions	-2650
▁cross	-2651
ifornia	-2652
estri	-2653
▁partial	-2654
▁̈	-2655
▁slow	-2656
elt	-2657
▁carbide	-2658
▁choosing	-2659
fort	-2660
ians	-2661
▁purp	-2662
▁taxi	-2663
▁-	-2664
quakes	-2665
▁lands	-2666
athers	-2667
▁appeared	-2668
erous	-2669
▁pull	-2670
gg	-2671
nd	-2672
▁tour	-2673
olleyball	-2674
nake	-2675
▁body	-2676
▁disag	-2677
▁levels	-2678
▁fake	-2679
▁scient	-2680
▁smarter	-2681
Source	-2682
itable	-2683
▁From	-2684
▁proved	-2685
▁serious	-2686
▁political	-2687
▁potential	-2688
▁flaw	-2689
▁whats	-2690
▁dollars	-2691
▁basically	-2692
ided	-2693
▁outside	-2694
▁produce	-2695
▁ende	-2696
▁float	-2697
▁third	-2698
▁meters	-2699
▁Columbia	-2700
▁mag	-2701
▁traveling	-2702
iple	-2703
onest	-2704
▁greatly	-2705
▁blankets	-2706
▁Rosenthal	-2707
rt	-2708
▁Those	-2709
▁table	-2710
gyptian	-2711
▁mostly	-2712
▁photograph	-2713
▁sli	-2714
▁Inst	-2715
▁goal	-2716
▁examples	-2717
▁individual	-2718
idden	-2719
▁everywhere	-2720
fully	-2721
▁success	-2722
▁believed	-2723
▁exam	-2724
▁sidewal	-2725
ivable	-2726
▁suggests	-2727
▁heard	-2728
▁media	-2729
▁recie	-2730
▁simpl	-2731
▁capable	-2732
erve	-2733
▁538	-2734
▁est	-2735
▁econ	-2736
▁feels	-2737
▁fined	-2738
▁faster	-2739
bers	-2740
▁lie	-2741
▁activ	-2742
▁displ	-2743
▁isnt	-2744
▁daily	-2745
▁played	-2746
▁irrational	-2747
▁Rep	-2748
ering	-2749
▁sister	-2750
▁lessons	-2751
▁planetary	-2752
▁ple	-2753
▁polluted	-2754
▁interested	-2755
xim	-2756
▁jams	-2757
ale	-2758
▁types	-2759
▁determine	-2760
ounter	-2761
▁nearly	-2762
▁instance	-2763
▁earthquakes	-2764
▁civilization	-2765
▁abs	-2766
▁die	-2767
▁hars	-2768
▁mood	-2769
▁showed	-2770
▁travels	-2771
▁alternative	-2772
▁hear	-2773
Alto	-2774
▁lifetime	-2775
▁fly	-2776
▁Gore	-2777
--	-2778
ulture	-2779
▁sharper	-2780
iqu	-2781
▁tot	-2782
▁efficient	-2783
rec	-2784
sidents	-2785
▁addition	-2786
"(	-2787
alin	-2788
▁kill	-2789
▁lack	-2790
▁endeav	-2791
riveless	-2792
▁rela	-2793
▁tend	-2794
▁remain	-2795
▁harsh	-2796
▁riding	-2797
▁studies	-2798
ric	-2799
▁sold	-2800
ibility	-2801
▁concern	-2802
▁sat	-2803
paragraph	-2804
amber	-2805
▁Congress	-2806
▁fell	-2807
▁hist	-2808
▁Snake	-2809
rict	-2810
quent	-2811
▁seat	-2812
▁drunk	-2813
▁front	-2814
▁notify	-2815
▁previous	-2816
▁name	-2817
▁Thats	-2818
▁edges	-2819
▁business	-2820
▁sediment	-2821
run	-2822
▁share	-2823
▁biggest	-2824
▁passengers	-2825
▁equal	-2826
▁afford	-2827
▁brakes	-2828
▁finally	-2829
abl	-2830
▁rev	-2831
▁starting	-2832
▁drives	-2833
▁River	-2834
▁keeps	-2835
▁founding	-2836
▁equally	-2837
▁required	-2838
asa	-2839
▁10	-2840
▁room	-2841
▁intim	-2842
▁Florida	-2843
▁factors	-2844
▁focused	-2845
▁realize	-2846
▁science	-2847
▁mem	-2848
esides	-2849
▁coding	-2850
▁overall	-2851
▁194	-2852
▁inh	-2853
▁book	-2854
▁worse	-2855
▁lasted	-2856
▁reveal	-2857
▁texting	-2858
▁disagree	-2859
▁volleyball	-2860
eth	-2861
▁Obama	-2862
▁congress	-2863
lies	-2864
▁deep	-2865
▁final	-2866
▁ancient	-2867
▁fathers	-2868
▁piece	-2869
▁Everyone	-2870
▁reducing	-2871
▁resources	-2872
▁sidewalks	-2873
▁spaceship	-2874
▁California	-2875
isl	-2876
plan	-2877
▁vib	-2878
▁movement	-2879
ants	-2880
▁dro	-2881
▁sum	-2882
▁Butte	-2883
▁170	-2884
▁pic	-2885
▁product	-2886
▁expect	-2887
▁finding	-2888
▁technol	-2889
▁believes	-2890
▁2009	-2891
▁became	-2892
▁diesel	-2893
▁polution	-2894
▁accelerate	-2895
br	-2896
▁boy	-2897
▁asleep	-2898
▁joined	-2899
▁survivable	-2900
sa	-2901
rely	-2902
▁conspiracy	-2903
itt	-2904
▁age	-2905
ement	-2906
▁Egyptian	-2907
▁somewhere	-2908
▁rob	-2909
▁More	-2910
ock	-2911
▁mix	-2912
▁sever	-2913
▁saving	-2914
▁elected	-2915
ged	-2916
▁anal	-2917
▁phys	-2918
▁Middle	-2919
▁multiple	-2920
▁numerous	-2921
▁volcanoes	-2922
▁kid	-2923
action	-2924
▁enforced	-2925
▁?	-2926
When	-2927
iving	-2928
omber	-2929
▁flex	-2930
▁region	-2931
num	-2932
▁Ac	-2933
antic	-2934
arest	-2935
▁crazy	-2936
▁lava	-2937
idating	-2938
▁device	-2939
▁invest	-2940
▁reliable	-2941
ms	-2942
▁Pa	-2943
olis	-2944
▁Plain	-2945
▁Driving	-2946
▁participate	-2947
▁blimp	-2948
▁Humans	-2949
▁original	-2950
▁endeavors	-2951
▁ok	-2952
oday	-2953
▁il	-2954
rying	-2955
verbal	-2956
▁expanded	-2957
asue	-2958
▁100	-2959
▁scan	-2960
▁turned	-2961
▁react	-2962
▁boxing	-2963
▁teen	-2964
Making	-2965
▁stores	-2966
▁El	-2967
alls	-2968
rodu	-2969
▁erup	-2970
▁parent	-2971
▁united	-2972
▁theorists	-2973
gram	-2974
▁marking	-2975
▁familiar	-2976
▁pedestri	-2977
▁allowing	-2978
osen	-2979
▁cows	-2980
▁kept	-2981
driving	-2982
▁appeal	-2983
omberger	-2984
▁Sometimes	-2985
NASA	-2986
▁surprise	-2987
onday	-2988
▁Overall	-2989
▁fl	-2990
▁ann	-2991
▁gained	-2992
▁moving	-2993
▁Secondly	-2994
▁sort	-2995
▁frequent	-2996
driverless	-2997
▁therefore	-2998
▁fray	-2999
▁decided	-3000
▁nearest	-3001
▁contribute	-3002
PL	-3003
▁gon	-3004
▁offer	-3005
▁Walter	-3006
▁boring	-3007
▁discovered	-3008
▁neigh	-3009
▁tired	-3010
▁intimidating	-3011
▁ocean	-3012
▁position	-3013
days	-3014
abeth	-3015
ences	-3016
▁holds	-3017
▁theres	-3018
▁quality	-3019
▁supporting	-3020
▁oper	-3021
▁zones	-3022
▁Of	-3023
ined	-3024
ried	-3025
▁accurate	-3026
▁supposed	-3027
▁complicated	-3028
▁illeg	-3029
▁senator	-3030
▁decision	-3031
ilit	-3032
land	-3033
▁low	-3034
▁recent	-3035
▁objects	-3036
▁fil	-3037
▁wait	-3038
ichard	-3039
minist	-3040
▁presidents	-3041
icts	-3042
▁blo	-3043
▁obs	-3044
▁robot	-3045
▁upset	-3046
▁healthier	-3047
▁residents	-3048
▁ter	-3049
▁wish	-3050
▁chaos	-3051
▁honest	-3052
cape	-3053
ique	-3054
omed	-3055
▁movies	-3056
gr	-3057
▁II	-3058
ilities	-3059
▁provides	-3060
mer	-3061
▁dome	-3062
▁devices	-3063
▁fore	-3064
▁week	-3065
▁tried	-3066
▁depress	-3067
ey	-3068
▁Heid	-3069
▁conv	-3070
▁strugg	-3071
▁bicycle	-3072
▁privacy	-3073
If	-3074
Even	-3075
anet	-3076
ered	-3077
▁short	-3078
▁swing	-3079
▁busy	-3080
▁Their	-3081
▁explaining	-3082
ney	-3083
▁eye	-3084
▁fal	-3085
▁Malin	-3086
▁neighb	-3087
▁results	-3088
▁designed	-3089
akers	-3090
▁shape	-3091
▁illegal	-3092
▁several	-3093
▁BM	-3094
numbered	-3095
▁effects	-3096
ses	-3097
▁pa	-3098
▁strikes	-3099
ining	-3100
ashing	-3101
▁gonna	-3102
▁storm	-3103
▁charact	-3104
▁history	-3105
▁Bomberger	-3106
▁communicate	-3107
sky	-3108
▁ear	-3109
uffer	-3110
▁fencing	-3111
emocratic	-3112
▁airplan	-3113
▁promote	-3114
▁presidency	-3115
▁rocks	-3116
eral	-3117
▁site	-3118
▁intern	-3119
▁concept	-3120
▁stopped	-3121
▁TH	-3122
▁gl	-3123
inci	-3124
inary	-3125
▁Life	-3126
istant	-3127
▁proper	-3128
▁disaster	-3129
▁mass	-3130
▁track	-3131
▁becasue	-3132
▁democratic	-3133
▁establ	-3134
rew	-3135
▁Italy	-3136
▁sleep	-3137
▁developing	-3138
▁entertainment	-3139
▁park	-3140
▁destro	-3141
▁everybody	-3142
▁dram	-3143
▁fund	-3144
▁prot	-3145
▁mules	-3146
▁Plumer	-3147
▁legisl	-3148
▁phones	-3149
▁speeds	-3150
▁Students	-3151
▁particular	-3152
▁grow	-3153
▁wreck	-3154
▁consists	-3155
▁engine	-3156
▁screen	-3157
▁smiling	-3158
ME	-3159
▁BMW	-3160
▁sec	-3161
▁smo	-3162
▁Prof	-3163
▁tool	-3164
▁Next	-3165
▁stating	-3166
▁gro	-3167
▁chamber	-3168
sh	-3169
ata	-3170
een	-3171
dered	-3172
pping	-3173
ifying	-3174
▁prefer	-3175
▁sports	-3176
▁congest	-3177
▁occasion	-3178
▁disgusted	-3179
▁distracted	-3180
▁resolution	-3181
▁possibility	-3182
med	-3183
ral	-3184
▁ele	-3185
▁red	-3186
▁refer	-3187
▁mixed	-3188
ropolis	-3189
▁ap	-3190
▁orb	-3191
lling	-3192
▁del	-3193
▁snapped	-3194
▁bill	-3195
▁late	-3196
▁Richard	-3197
vant	-3198
uments	-3199
▁State	-3200
▁attem	-3201
▁simul	-3202
▁fearful	-3203
▁usually	-3204
tion	-3205
▁Art	-3206
▁mark	-3207
rs	-3208
▁bans	-3209
▁theory	-3210
▁resembles	-3211
▁structure	-3212
▁absol	-3213
▁relax	-3214
isabeth	-3215
▁Though	-3216
▁erupting	-3217
umb	-3218
▁apply	-3219
▁beaut	-3220
▁German	-3221
▁smaller	-3222
▁driveways	-3223
▁experiment	-3224
▁personally	-3225
▁consideration	-3226
aled	-3227
just	-3228
▁rate	-3229
iments	-3230
▁month	-3231
▁chosen	-3232
▁office	-3233
▁shadow	-3234
▁surroundings	-3235
▁Red	-3236
▁serv	-3237
RO	-3238
uch	-3239
▁1.	-3240
▁Further	-3241
▁seeking	-3242
20	-3243
▁70	-3244
rend	-3245
▁Star	-3246
▁prof	-3247
pend	-3248
raffic	-3249
atically	-3250
▁Think	-3251
▁false	-3252
▁although	-3253
▁Driveless	-3254
ards	-3255
twin	-3256
▁lay	-3257
inning	-3258
▁diffrent	-3259
▁vo	-3260
aded	-3261
▁196	-3262
▁saft	-3263
▁creation	-3264
▁construction	-3265
ield	-3266
▁rule	-3267
▁Instead	-3268
▁leading	-3269
▁brightest	-3270
▁landscape	-3271
▁constantly	-3272
time	-3273
anama	-3274
▁plus	-3275
▁Eckman	-3276
▁nonverbal	-3277
▁autonomous	-3278
▁GP	-3279
▁JPL	-3280
▁role	-3281
▁parag	-3282
▁height	-3283
▁moment	-3284
▁artical	-3285
▁ourselves	-3286
nect	-3287
uals	-3288
olated	-3289
▁Today	-3290
▁asked	-3291
▁damage	-3292
▁unlike	-3293
▁character	-3294
▁deb	-3295
osner	-3296
▁unique	-3297
mas	-3298
▁8,	-3299
▁simplified	-3300
▁43	-3301
▁none	-3302
▁shop	-3303
▁unus	-3304
▁Acropolis	-3305
NA	-3306
▁11	-3307
▁ach	-3308
▁task	-3309
▁Heidrun	-3310
▁figured	-3311
▁communities	-3312
ern	-3313
▁closely	-3314
▁watching	-3315
▁Elisabeth	-3316
▁airplanes	-3317
▁thousands	-3318
▁Planet	-3319
▁Venice	-3320
▁mentioned	-3321
oting	-3322
▁material	-3323
com	-3324
aged	-3325
aring	-3326
▁flew	-3327
▁grocer	-3328
▁purpose	-3329
▁markings	-3330
▁predicts	-3331
ministration	-3332
What	-3333
ford	-3334
▁GPS	-3335
▁beac	-3336
▁dream	-3337
off	-3338
elsky	-3339
▁suff	-3340
▁approaches	-3341
▁Oce	-3342
forms	-3343
utions	-3344
▁feature	-3345
▁hostile	-3346
▁improved	-3347
▁Sh	-3348
▁Sp	-3349
▁fit	-3350
icate	-3351
ising	-3352
itude	-3353
▁radio	-3354
▁occasionally	-3355
▁hor	-3356
▁bikes	-3357
▁cases	-3358
▁expert	-3359
▁harmful	-3360
▁prepared	-3361
▁accom	-3362
▁drast	-3363
▁include	-3364
▁parents	-3365
▁automobiles	-3366
iod	-3367
▁Ph	-3368
▁opt	-3369
rible	-3370
▁path	-3371
lantic	-3372
▁crush	-3373
▁spread	-3374
▁obvious	-3375
▁thoughts	-3376
▁Me	-3377
▁wins	-3378
ipped	-3379
orment	-3380
▁House	-3381
▁Other	-3382
▁Panama	-3383
tem	-3384
achers	-3385
▁satis	-3386
ittling	-3387
▁economy	-3388
▁suburbs	-3389
irty	-3390
▁cell	-3391
▁price	-3392
▁connect	-3393
▁distant	-3394
▁Venusian	-3395
▁pedestrians	-3396
imin	-3397
▁rear	-3398
▁legal	-3399
▁necessary	-3400
ores	-3401
rete	-3402
▁270	-3403
▁unman	-3404
▁brings	-3405
▁readers	-3406
haps	-3407
▁Sub	-3408
▁une	-3409
▁Const	-3410
▁adult	-3411
▁books	-3412
▁healthy	-3413
▁weight	-3414
▁eventually	-3415
edom	-3416
▁rain	-3417
tennis	-3418
▁indust	-3419
▁har	-3420
▁progress	-3421
iation	-3422
▁flaws	-3423
▁deaths	-3424
▁wanting	-3425
▁congestion	-3426
This	-3427
ading	-3428
▁Plus	-3429
▁eight	-3430
▁middle	-3431
▁complex	-3432
▁fahrenheit	-3433
▁generation	-3434
NAME	-3435
oters	-3436
▁unless	-3437
▁examine	-3438
acks	-3439
cked	-3440
urning	-3441
▁exceed	-3442
▁written	-3443
ites	-3444
nedy	-3445
▁arent	-3446
▁conclude	-3447
ael	-3448
▁22	-3449
ennedy	-3450
▁trend	-3451
▁owners	-3452
▁involved	-3453
▁spacecrafts	-3454
▁nor	-3455
▁felt	-3456
she	-3457
oses	-3458
▁Once	-3459
▁myself	-3460
▁displays	-3461
▁lightning	-3462
▁assistance	-3463
),	-3464
adford	-3465
▁colle	-3466
▁larger	-3467
▁authors	-3468
▁anywhere	-3469
1.	-3470
sm	-3471
def	-3472
▁sen	-3473
▁Mich	-3474
▁Canal	-3475
▁signs	-3476
▁hidden	-3477
▁percentage	-3478
aks	-3479
cles	-3480
▁Ser	-3481
ission	-3482
▁listen	-3483
▁centers	-3484
▁freedom	-3485
▁individuals	-3486
cal	-3487
▁stra	-3488
▁scared	-3489
▁replaced	-3490
▁revealed	-3491
▁race	-3492
▁castle	-3493
▁brought	-3494
▁letting	-3495
▁sitting	-3496
▁mentions	-3497
So	-3498
gey	-3499
▁2,	-3500
▁anx	-3501
▁disp	-3502
▁garages	-3503
▁testing	-3504
They	-3505
omas	-3506
▁Here	-3507
▁achie	-3508
▁analog	-3509
▁regard	-3510
▁social	-3511
▁grocery	-3512
▁describes	-3513
▁Ocean	-3514
ensible	-3515
masking	-3516
▁cloudy	-3517
▁taught	-3518
▁reminds	-3519
▁studied	-3520
▁established	-3521
udi	-3522
▁solve	-3523
▁́	-3524
▁mir	-3525
▁mis	-3526
▁upon	-3527
▁Vinci	-3528
▁overse	-3529
▁becomes	-3530
atever	-3531
▁Crete	-3532
▁isolated	-3533
▁spinning	-3534
▁supplies	-3535
▁unmanned	-3536
▁Ali	-3537
▁Nasa	-3538
▁post	-3539
▁following	-3540
▁considering	-3541
rough	-3542
▁Suburb	-3543
▁general	-3544
air	-3545
▁dig	-3546
ously	-3547
▁nine	-3548
▁introdu	-3549
▁worried	-3550
!"	-3551
using	-3552
▁perform	-3553
▁Furthermore	-3554
▁Em	-3555
▁bal	-3556
▁bele	-3557
▁tight	-3558
▁Monday	-3559
▁conside	-3560
▁captured	-3561
▁basis	-3562
▁univers	-3563
▁someones	-3564
Un	-3565
▁[	-3566
era	-3567
los	-3568
nam	-3569
tions	-3570
azines	-3571
▁respon	-3572
▁directly	-3573
▁opinions	-3574
▁canidates	-3575
▁navigating	-3576
AR	-3577
GS	-3578
oline	-3579
▁Bush	-3580
▁haven	-3581
▁absolute	-3582
▁independ	-3583
▁licenses	-3584
▁wonderful	-3585
▁enviorment	-3586
acial	-3587
▁83	-3588
▁drop	-3589
▁upgr	-3590
Evening	-3591
▁largest	-3592
▁quickly	-3593
▁physical	-3594
▁data	-3595
▁collage	-3596
▁leaving	-3597
▁Atlantic	-3598
▁function	-3599
▁somebody	-3600
▁decreased	-3601
▁persu	-3602
▁Thomas	-3603
▁notice	-3604
▁Kennedy	-3605
▁growing	-3606
oura	-3607
unch	-3608
ercury	-3609
▁please	-3610
ators	-3611
▁Brin	-3612
▁benifit	-3613
▁referred	-3614
▁innovations	-3615
lu	-3616
▁3,	-3617
jing	-3618
safe	-3619
▁PRO	-3620
▁protect	-3621
▁strongly	-3622
▁explained	-3623
▁held	-3624
▁line	-3625
▁nobody	-3626
▁technolgy	-3627
▁astronomers	-3628
biter	-3629
▁wide	-3630
▁images	-3631
▁considered	-3632
ara	-3633
ret	-3634
Then	-3635
▁2020	-3636
▁empt	-3637
▁hous	-3638
▁convin	-3639
▁mother	-3640
▁nature	-3641
Se	-3642
▁Jim	-3643
ables	-3644
▁satisf	-3645
▁starts	-3646
▁citizen	-3647
▁analogous	-3648
▁practical	-3649
▁simulating	-3650
▁Administration	-3651
PER	-3652
source	-3653
▁1998,	-3654
▁dense	-3655
rans	-3656
▁hiding	-3657
▁release	-3658
▁manufact	-3659
▁shouldnt	-3660
▁suburban	-3661
▁solutions	-3662
ohn	-3663
▁py	-3664
▁Cam	-3665
▁continu	-3666
▁touched	-3667
ole	-3668
line	-3669
▁dead	-3670
▁words	-3671
▁Sergey	-3672
▁persons	-3673
▁unusual	-3674
▁beginning	-3675
bel	-3676
dri	-3677
ials	-3678
▁destroy	-3679
▁electing	-3680
▁slight	-3681
▁Michael	-3682
▁appears	-3683
▁Bradford	-3684
▁electric	-3685
▁gasoline	-3686
▁overseas	-3687
▁roof	-3688
▁ended	-3689
▁14	-3690
▁bud	-3691
▁heav	-3692
▁empty	-3693
▁rules	-3694
▁harder	-3695
▁learned	-3696
▁whatever	-3697
▁Astronomers	-3698
efully	-3699
▁teenag	-3700
▁whittling	-3701
.''	-3702
▁Indef	-3703
▁chose	-3704
▁lived	-3705
▁plants	-3706
▁submar	-3707
▁comprom	-3708
▁released	-3709
▁sy	-3710
▁bac	-3711
▁Carlos	-3712
▁dealing	-3713
▁tournam	-3714
▁calculate	-3715
▁hi	-3716
▁natur	-3717
▁train	-3718
▁Duffer	-3719
▁begins	-3720
▁cir	-3721
▁prec	-3722
driven	-3723
▁fight	-3724
▁attempt	-3725
▁automobile	-3726
▁potentially	-3727
ident	-3728
▁Posner	-3729
▁beautiful	-3730
▁liability	-3731
▁magazines	-3732
ung	-3733
....	-3734
gency	-3735
▁Your	-3736
▁myst	-3737
▁surf	-3738
▁storms	-3739
▁cleaner	-3740
▁martian	-3741
▁respond	-3742
▁cru	-3743
▁okay	-3744
▁peak	-3745
▁assign	-3746
▁wrecks	-3747
▁encounter	-3748
den	-3749
▁23	-3750
overy	-3751
▁luck	-3752
Facial	-3753
▁heads	-3754
▁Making	-3755
▁announ	-3756
▁classes	-3757
▁desp	-3758
▁began	-3759
▁PROPER	-3760
▁impress	-3761
▁planning	-3762
▁Aut	-3763
▁decl	-3764
▁access	-3765
▁Orbiter	-3766
▁accompl	-3767
▁picking	-3768
ola	-3769
0,000	-3770
▁unsafe	-3771
▁passenger	-3772
kn	-3773
what	-3774
▁2013	-3775
▁doubt	-3776
▁asking	-3777
▁forced	-3778
▁plenty	-3779
▁options	-3780
▁playing	-3781
▁2.	-3782
ises	-3783
izing	-3784
friend	-3785
▁google	-3786
▁return	-3787
▁shipped	-3788
▁staying	-3789
▁Teachers	-3790
▁Represent	-3791
▁arguments	-3792
by	-3793
▁Mr	-3794
▁invented	-3795
▁provided	-3796
▁Constitution	-3797
▁mph	-3798
▁sud	-3799
▁frown	-3800
▁period	-3801
▁comfort	-3802
▁creates	-3803
▁meeting	-3804
▁luke	-3805
▁seas	-3806
▁unlo	-3807
▁switch	-3808
▁willing	-3809
▁revealing	-3810
aw	-3811
▁ads	-3812
▁organ	-3813
▁pyram	-3814
▁effort	-3815
▁elimin	-3816
ediments	-3817
▁classified	-3818
▁tournaments	-3819
▁reads	-3820
▁Comput	-3821
Seagoing	-3822
▁recover	-3823
▁naturally	-3824
▁radiation	-3825
irt	-3826
tly	-3827
uting	-3828
espite	-3829
▁weren	-3830
ether	-3831
▁Goes	-3832
record	-3833
▁lying	-3834
▁probes	-3835
▁selecting	-3836
56	-3837
▁Space	-3838
▁avail	-3839
▁exerc	-3840
▁record	-3841
▁techon	-3842
▁culture	-3843
▁straight	-3844
▁Indefensible	-3845
oul	-3846
ently	-3847
▁John	-3848
▁gond	-3849
▁intrest	-3850
▁located	-3851
▁alt	-3852
▁Camera	-3853
▁breath	-3854
▁compromise	-3855
▁57	-3856
▁report	-3857
▁ens	-3858
▁lat	-3859
ornment	-3860
▁Arturo	-3861
▁mirror	-3862
▁efforts	-3863
▁mistakes	-3864
▁af	-3865
▁100%	-3866
▁maxim	-3867
▁motion	-3868
▁cleared	-3869
▁setting	-3870
▁confusion	-3871
▁functions	-3872
▁submarine	-3873
▁revolution	-3874
gn	-3875
▁gass	-3876
▁disad	-3877
▁guess	-3878
▁thirty	-3879
▁curious	-3880
Most	-3881
oids	-3882
rences	-3883
▁popul	-3884
▁talked	-3885
▁nations	-3886
ging	-3887
laid	-3888
ember	-3889
▁Such	-3890
▁haze	-3891
▁stat	-3892
▁representatives	-3893
ixon	-3894
ijing	-3895
▁game	-3896
avated	-3897
▁catch	-3898
▁craft	-3899
▁ruins	-3900
▁Selsky	-3901
▁opened	-3902
sy	-3903
▁vi	-3904
▁1.56	-3905
▁Emot	-3906
ransport	-3907
▁deciding	-3908
▁prior	-3909
▁voice	-3910
▁defenses	-3911
▁neighbor	-3912
▁properly	-3913
ism	-3914
ison	-3915
▁Tex	-3916
▁rush	-3917
▁service	-3918
▁vice	-3919
estion	-3920
▁definite	-3921
We	-3922
back	-3923
▁Let	-3924
▁Rob	-3925
▁leads	-3926
▁placed	-3927
▁succeed	-3928
▁universal	-3929
rid	-3930
▁key	-3931
▁whom	-3932
▁error	-3933
▁minds	-3934
▁seven	-3935
▁appear	-3936
▁forget	-3937
▁twenty	-3938
▁highway	-3939
▁condition	-3940
▁improvement	-3941
eing	-3942
▁saftey	-3943
▁abolish	-3944
▁anxious	-3945
▁discovery	-3946
▁tre	-3947
araoh	-3948
assen	-3949
!!	-3950
▁Any	-3951
▁lights	-3952
▁metals	-3953
▁pyramids	-3954
bs	-3955
▁obser	-3956
▁except	-3957
▁todays	-3958
▁shopping	-3959
aza	-3960
▁moon	-3961
urance	-3962
▁broad	-3963
▁descri	-3964
▁16	-3965
pool	-3966
▁added	-3967
▁risky	-3968
▁budget	-3969
▁technological	-3970
co	-3971
▁Due	-3972
▁imple	-3973
▁layer	-3974
▁sides	-3975
▁grades	-3976
▁Studying	-3977
asty	-3978
duct	-3979
▁dra	-3980
▁log	-3981
▁shot	-3982
▁sick	-3983
▁lines	-3984
▁differ	-3985
▁prices	-3986
Paragraph	-3987
▁stressed	-3988
▁adventures	-3989
Car	-3990
eple	-3991
▁Paul	-3992
▁shif	-3993
▁speak	-3994
▁leader	-3995
▁private	-3996
▁Representatives	-3997
Paris	-3998
▁anat	-3999
▁ther	-4000
▁influ	-4001
▁Through	-4002
▁beacuse	-4003
▁gondola	-4004
▁surfers	-4005
▁excavated	-4006
▁reasoning	-4007
sp	-4008
."(	-4009
▁cof	-4010
▁suffer	-4011
▁writing	-4012
▁sentence	-4013
▁disadvant	-4014
▁additional	-4015
▁drastically	-4016
ny	-4017
ief	-4018
olly	-4019
▁rode	-4020
▁paris	-4021
ospitable	-4022
▁farm	-4023
▁online	-4024
▁Mercury	-4025
▁spending	-4026
lly	-4027
▁pen	-4028
elling	-4029
▁maximum	-4030
▁abolished	-4031
▁improving	-4032
OC	-4033
oci	-4034
▁ce	-4035
▁fi	-4036
kept	-4037
veled	-4038
▁avoids	-4039
▁summer	-4040
▁useless	-4041
▁convince	-4042
▁exercise	-4043
utes	-4044
vable	-4045
▁roll	-4046
▁Plaza	-4047
▁hiked	-4048
▁joining	-4049
▁tele	-4050
▁radar	-4051
▁gotten	-4052
▁dispute	-4053
▁signific	-4054
▁successful	-4055
▁generations	-4056
wood	-4057
▁hay	-4058
▁edge	-4059
▁explan	-4060
▁Despite	-4061
▁implement	-4062
▁qualified	-4063
ark	-4064
▁1960	-4065
▁shut	-4066
▁biked	-4067
▁backing	-4068
▁pulling	-4069
▁available	-4070
▁definitely	-4071
▁recognition	-4072
▁THE	-4073
▁York	-4074
▁liqu	-4075
▁meant	-4076
▁wheels	-4077
▁assumption	-4078
▁compelling	-4079
wide	-4080
▁ran	-4081
cking	-4082
▁2001,	-4083
▁Nixon	-4084
▁Beijing	-4085
▁advancement	-4086
istics	-4087
ounder	-4088
▁adults	-4089
▁biking	-4090
▁sevent	-4091
▁numbers	-4092
▁hy	-4093
full	-4094
acing	-4095
cedes	-4096
▁icon	-4097
▁adjust	-4098
friendly	-4099
▁encoura	-4100
▁stressful	-4101
▁constructs	-4102
ze	-4103
ray	-4104
▁MGS	-4105
▁obst	-4106
▁1976,	-4107
utation	-4108
▁Aliens	-4109
▁aspect	-4110
▁blamed	-4111
▁incred	-4112
▁shacks	-4113
▁slowly	-4114
▁century	-4115
▁runs	-4116
▁older	-4117
▁seats	-4118
▁unbel	-4119
▁collect	-4120
▁exciting	-4121
▁ow	-4122
cific	-4123
▁Colomb	-4124
▁Robert	-4125
▁associ	-4126
▁Pharaoh	-4127
▁Program	-4128
▁beleive	-4129
▁depending	-4130
my	-4131
▁$4	-4132
sion	-4133
▁ant	-4134
▁shap	-4135
▁super	-4136
▁breaks	-4137
▁geology	-4138
intensive	-4139
lications	-4140
▁currently	-4141
▁Democratic	-4142
▁discussing	-4143
▁enviornment	-4144
ien	-4145
reg	-4146
▁Tw	-4147
▁apart	-4148
▁forces	-4149
▁mainly	-4150
▁skated	-4151
▁smooth	-4152
assenger	-4153
iversity	-4154
ollywood	-4155
▁pointless	-4156
cale	-4157
▁hur	-4158
▁mom	-4159
▁tec	-4160
▁sites	-4161
▁excited	-4162
▁forward	-4163
▁satisfied	-4164
▁thor	-4165
ercedes	-4166
▁banning	-4167
▁digital	-4168
▁foot	-4169
▁supr	-4170
▁Texas	-4171
▁excer	-4172
▁teens	-4173
▁mistake	-4174
▁reaction	-4175
▁selection	-4176
▁scientific	-4177
▁Ass	-4178
▁grate	-4179
▁rates	-4180
▁gasses	-4181
▁actions	-4182
▁inventions	-4183
otive	-4184
swing	-4185
▁prop	-4186
ederal	-4187
▁lifes	-4188
▁corner	-4189
▁conduct	-4190
▁building	-4191
▁focusing	-4192
▁unlikely	-4193
happ	-4194
▁code	-4195
▁equip	-4196
▁trusted	-4197
▁numbered	-4198
ilot	-4199
▁Bob	-4200
▁plent	-4201
▁Voters	-4202
▁industry	-4203
hab	-4204
▁impressive	-4205
▁increasing	-4206
▁impediments	-4207
uries	-4208
▁field	-4209
▁metal	-4210
▁total	-4211
▁weird	-4212
▁animal	-4213
▁chances	-4214
▁National	-4215
▁depressed	-4216
▁negatives	-4217
▁University	-4218
▁constitution	-4219
eed	-4220
▁Kn	-4221
uesday	-4222
▁caught	-4223
▁profess	-4224
▁upscale	-4225
▁completly	-4226
gor	-4227
ched	-4228
There	-4229
ience	-4230
illed	-4231
imate	-4232
rench	-4233
▁Nick	-4234
▁math	-4235
▁plans	-4236
▁stick	-4237
▁solved	-4238
▁besides	-4239
▁Coll	-4240
▁Will	-4241
▁4,000	-4242
▁owner	-4243
▁style	-4244
unities	-4245
▁permit	-4246
▁warming	-4247
▁theories	-4248
On	-4249
wise	-4250
▁22-	-4251
ishing	-4252
▁interact	-4253
▁upd	-4254
▁alive	-4255
▁spent	-4256
pective	-4257
▁picked	-4258
▁america	-4259
▁balance	-4260
▁vibrate	-4261
aves	-4262
ters	-4263
▁Day	-4264
▁Jam	-4265
▁Mean	-4266
▁emer	-4267
▁onto	-4268
culation	-4269
▁receive	-4270
▁honestly	-4271
▁plentiful	-4272
▁3).	-4273
▁news	-4274
▁unre	-4275
▁treat	-4276
▁indeed	-4277
▁response	-4278
▁dramatically	-4279
But	-4280
gen	-4281
▁emm	-4282
▁wan	-4283
▁agre	-4284
▁coun	-4285
▁jour	-4286
▁draft	-4287
▁kinds	-4288
▁loved	-4289
▁During	-4290
▁enables	-4291
▁massive	-4292
▁describing	-4293
▁men	-4294
▁named	-4295
▁Andrew	-4296
▁oppurt	-4297
▁crucial	-4298
▁advances	-4299
euro	-4300
▁97%	-4301
alled	-4302
▁grad	-4303
▁deepest	-4304
▁paragra	-4305
▁missions	-4306
▁insurance	-4307
▁malfunctions	-4308
▁Le	-4309
▁Def	-4310
▁Ford	-4311
▁Vice	-4312
▁among	-4313
▁winter	-4314
▁connected	-4315
▁ownership	-4316
OT	-4317
erry	-4318
▁Mot	-4319
▁Rom	-4320
▁auto	-4321
▁raise	-4322
▁active	-4323
▁charge	-4324
▁explored	-4325
▁modified	-4326
▁flexibility	-4327
St	-4328
erona	-4329
▁intens	-4330
▁technologies	-4331
31	-4332
mend	-4333
▁bunch	-4334
▁internet	-4335
▁remember	-4336
▁decisions	-4337
▁reduction	-4338
uage	-4339
▁End	-4340
▁quot	-4341
▁2000,	-4342
ilitary	-4343
▁astron	-4344
▁restri	-4345
▁replace	-4346
Unmasking	-4347
▁cold	-4348
▁elct	-4349
▁push	-4350
▁$40,000	-4351
▁politic	-4352
▁Computers	-4353
aur	-4354
▁parks	-4355
▁voter	-4356
eronaut	-4357
▁totally	-4358
▁activity	-4359
▁electronic	-4360
fered	-4361
▁homes	-4362
▁notic	-4363
▁tennis	-4364
▁automotive	-4365
▁inhospitable	-4366
19	-4367
isis	-4368
▁She	-4369
▁eat	-4370
▁laz	-4371
▁1945	-4372
▁Dole	-4373
▁cert	-4374
▁oats	-4375
▁ribs	-4376
▁analy	-4377
▁relie	-4378
▁compare	-4379
▁reputation	-4380
xy	-4381
esome	-4382
ulate	-4383
▁passed	-4384
▁experts	-4385
▁truthful	-4386
apt	-4387
rup	-4388
▁psy	-4389
▁crashing	-4390
▁teenagers	-4391
ior	-4392
▁ign	-4393
issan	-4394
▁2012	-4395
▁reck	-4396
▁confli	-4397
▁lifest	-4398
▁attract	-4399
▁watches	-4400
▁military	-4401
▁struggling	-4402
▁importantly	-4403
olar	-4404
▁ord	-4405
▁rot	-4406
▁maint	-4407
▁skept	-4408
▁valid	-4409
▁manage	-4410
▁toasty	-4411
▁methods	-4412
▁emission	-4413
▁improvements	-4414
Our	-4415
even	-4416
ners	-4417
▁Pri	-4418
icals	-4419
while	-4420
▁poeple	-4421
▁ordered	-4422
▁worrying	-4423
xic	-4424
▁1,	-4425
▁Human	-4426
▁algor	-4427
▁inhab	-4428
▁counting	-4429
▁hundreds	-4430
▁overcome	-4431
50	-4432
For	-4433
▁$2	-4434
▁mor	-4435
known	-4436
▁Only	-4437
enders	-4438
▁breathe	-4439
▁landmar	-4440
▁despised	-4441
eronautics	-4442
▁cofounder	-4443
▁positives	-4444
▁ho	-4445
▁si	-4446
iety	-4447
anger	-4448
▁Autom	-4449
cessary	-4450
▁Culture	-4451
▁awesome	-4452
▁unbelie	-4453
Rosenthal	-4454
▁homework	-4455
▁thorough	-4456
▁confusing	-4457
▁activities	-4458
▁fat	-4459
weigh	-4460
▁cele	-4461
▁unve	-4462
▁wind	-4463
nology	-4464
opular	-4465
▁visits	-4466
▁amounts	-4467
▁holding	-4468
▁Mercedes	-4469
▁grateful	-4470
▁electorial	-4471
rol	-4472
▁Ab	-4473
▁Sa	-4474
▁sem	-4475
idents	-4476
▁penet	-4477
▁purch	-4478
▁Driver	-4479
▁anyway	-4480
▁algorith	-4481
▁productive	-4482
That	-4483
rived	-4484
style	-4485
▁forb	-4486
▁2009.	-4487
▁famous	-4488
▁national	-4489
▁certainly	-4490
▁cloudless	-4491
▁unfriendly	-4492
▁&	-4493
alis	-4494
onst	-4495
▁ener	-4496
▁evol	-4497
▁stup	-4498
▁fixed	-4499
▁Romney	-4500
▁losing	-4501
▁tracks	-4502
otection	-4503
▁programs	-4504
▁paragraphs	-4505
enz	-4506
wor	-4507
itiz	-4508
that	-4509
▁Reg	-4510
These	-4511
▁Third	-4512
▁alike	-4513
▁deleg	-4514
▁gears	-4515
▁worst	-4516
fective	-4517
▁rarely	-4518
▁sudden	-4519
▁steering	-4520
▁hopefully	-4521
▁expressive	-4522
you	-4523
▁Dist	-4524
▁Sure	-4525
winner	-4526
clusion	-4527
ufacture	-4528
▁members	-4529
▁somthing	-4530
▁continues	-4531
▁expresses	-4532
▁surprised	-4533
▁differences	-4534
▁Audi	-4535
▁atom	-4536
aining	-4537
icular	-4538
▁South	-4539
▁psych	-4540
▁crisis	-4541
▁owning	-4542
▁spotted	-4543
▁highways	-4544
▁orbiting	-4545
▁penetrate	-4546
▁polluting	-4547
▁popularity	-4548
▁advancements	-4549
net	-4550
aser	-4551
raid	-4552
▁1).	-4553
▁mat	-4554
which	-4555
▁Long	-4556
ounded	-4557
▁enorm	-4558
▁units	-4559
▁glitch	-4560
▁whenever	-4561
▁equipment	-4562
oint	-4563
itive	-4564
▁1800	-4565
▁defy	-4566
▁brain	-4567
▁Nissan	-4568
▁entirely	-4569
ON	-4570
how	-4571
▁Cl	-4572
gery	-4573
ming	-4574
▁Say	-4575
▁Comp	-4576
▁cult	-4577
▁compl	-4578
▁hired	-4579
▁caption	-4580
▁falling	-4581
▁predict	-4582
▁associated	-4583
py	-4584
ring	-4585
▁comb	-4586
▁lucky	-4587
▁consum	-4588
▁ensure	-4589
▁stupid	-4590
landforms	-4591
▁replacing	-4592
▁calculations	-4593
ID	-4594
ane	-4595
▁Toy	-4596
▁gra	-4597
▁orbit	-4598
▁sights	-4599
▁depends	-4600
▁bringing	-4601
▁district	-4602
▁unloaded	-4603
▁obviously	-4604
▁withstand	-4605
▁accomplish	-4606
▁intensifying	-4607
▁Da	-4608
▁US	-4609
ocra	-4610
▁ast	-4611
ament	-4612
raped	-4613
▁2016	-4614
▁poor	-4615
▁frust	-4616
▁flying	-4617
▁hazard	-4618
▁controll	-4619
.'	-4620
view	-4621
▁engaged	-4622
▁34	-4623
they	-4624
▁fif	-4625
ended	-4626
▁toss	-4627
▁adapt	-4628
▁heart	-4629
▁rights	-4630
▁imagery	-4631
5.	-4632
▁En	-4633
▁wise	-4634
▁paths	-4635
▁scary	-4636
▁threat	-4637
▁visiting	-4638
▁promoting	-4639
▁comfortable	-4640
▁ren	-4641
▁unc	-4642
▁exce	-4643
▁fant	-4644
▁hasn	-4645
▁mile	-4646
erhaps	-4647
▁faced	-4648
▁Diesel	-4649
▁afraid	-4650
▁diving	-4651
▁related	-4652
▁outweigh	-4653
▁reckless	-4654
▁resistant	-4655
Astronomers	-4656
▁Aeronautics	-4657
ES	-4658
anced	-4659
itals	-4660
smart	-4661
▁rise	-4662
▁robots	-4663
ordinary	-4664
▁Collage	-4665
▁Knowing	-4666
▁priority	-4667
unt	-4668
etly	-4669
cling	-4670
omatic	-4671
▁Under	-4672
▁likes	-4673
▁mesas	-4674
▁shift	-4675
▁French	-4676
▁European	-4677
aper	-4678
astic	-4679
right	-4680
▁Smog	-4681
▁tail	-4682
raction	-4683
▁investig	-4684
▁somewhat	-4685
▁standard	-4686
▁automatic	-4687
app	-4688
huge	-4689
▁sta	-4690
▁beca	-4691
▁twice	-4692
ustomed	-4693
▁occurs	-4694
▁thrown	-4695
▁counter	-4696
▁invited	-4697
▁whoever	-4698
▁Hollywood	-4699
▁generally	-4700
▁responsib	-4701
▁Man	-4702
enced	-4703
erson	-4704
itted	-4705
gation	-4706
ocracy	-4707
▁2013,	-4708
▁autop	-4709
▁energy	-4710
▁fellow	-4711
▁Assistant	-4712
zone	-4713
▁Lets	-4714
▁fram	-4715
coming	-4716
yoming	-4717
▁Citiz	-4718
▁conse	-4719
▁drove	-4720
▁belief	-4721
▁oppose	-4722
▁forever	-4723
▁proving	-4724
▁roiling	-4725
▁unveiled	-4726
▁ll	-4727
▁vibr	-4728
▁vist	-4729
▁tasks	-4730
▁Toyota	-4731
▁search	-4732
▁dropped	-4733
▁bicycles	-4734
▁themself	-4735
▁restrictions	-4736
brid	-4737
wing	-4738
▁60%	-4739
ories	-4740
▁genu	-4741
▁port	-4742
▁semi	-4743
▁zone	-4744
▁compar	-4745
▁answers	-4746
▁unknown	-4747
effective	-4748
▁District	-4749
▁carrying	-4750
▁terrible	-4751
▁influence	-4752
▁characteristic	-4753
As	-4754
ai	-4755
boat	-4756
iana	-4757
ires	-4758
▁lad	-4759
ricts	-4760
▁doct	-4761
▁saved	-4762
▁stuck	-4763
▁beings	-4764
▁broken	-4765
▁gather	-4766
▁stalls	-4767
▁Defense	-4768
▁affected	-4769
▁official	-4770
▁arguement	-4771
▁certainty	-4772
gree	-4773
▁ver	-4774
eting	-4775
▁Five	-4776
▁Less	-4777
▁guys	-4778
▁seemed	-4779
▁discern	-4780
▁roadwork	-4781
▁materials	-4782
▁4,	-4783
▁De	-4784
▁ec	-4785
▁nom	-4786
▁wanna	-4787
▁recieve	-4788
▁reduces	-4789
▁districts	-4790
efy	-4791
▁driv	-4792
ximity	-4793
▁eyebr	-4794
▁letter	-4795
▁Popular	-4796
▁studing	-4797
▁existing	-4798
▁responsibility	-4799
IN	-4800
esla	-4801
▁puts	-4802
▁viol	-4803
▁Prius	-4804
▁spans	-4805
▁wasnt	-4806
▁myster	-4807
▁operate	-4808
▁receives	-4809
▁accustomed	-4810
▁disadvantages	-4811
ada	-4812
ots	-4813
▁diss	-4814
▁webs	-4815
iverse	-4816
▁filled	-4817
▁arrived	-4818
▁flexible	-4819
▁lighting	-4820
▁destroyed	-4821
▁lifestyle	-4822
,'	-4823
uters	-4824
▁goals	-4825
▁races	-4826
Traffic	-4827
esearch	-4828
▁failed	-4829
▁anybody	-4830
▁demonst	-4831
▁sources	-4832
ask	-4833
pro	-4834
▁67	-4835
▁jet	-4836
ilock	-4837
▁neut	-4838
▁contr	-4839
ublican	-4840
▁Pacific	-4841
AN	-4842
ug	-4843
▁beg	-4844
▁mic	-4845
▁wis	-4846
graph	-4847
▁fide	-4848
▁stops	-4849
▁wrote	-4850
▁killed	-4851
▁remove	-4852
▁account	-4853
▁conclud	-4854
▁surgery	-4855
▁navigate	-4856
.)	-4857
rd	-4858
.".	-4859
bed	-4860
▁41	-4861
▁Us	-4862
▁Did	-4863
▁Rel	-4864
▁Yet	-4865
▁led	-4866
▁aslo	-4867
▁hack	-4868
▁habit	-4869
▁accept	-4870
▁alerts	-4871
▁housed	-4872
▁landed	-4873
regional	-4874
▁describe	-4875
▁humanity	-4876
▁impounded	-4877
▁proximity	-4878
val	-4879
▁gradu	-4880
▁Others	-4881
▁bloomed	-4882
▁restaur	-4883
▁strange	-4884
▁american	-4885
▁favorite	-4886
▁decreasing	-4887
▁oppurtunity	-4888
FACS	-4889
▁net	-4890
▁1940	-4891
gomatic	-4892
▁levers	-4893
▁limits	-4894
▁autopilot	-4895
ransportation	-4896
ilty	-4897
▁mim	-4898
▁scen	-4899
anging	-4900
▁repres	-4901
▁genuine	-4902
▁automated	-4903
▁businessman	-4904
iy	-4905
▁steps	-4906
ography	-4907
▁celebr	-4908
▁center	-4909
▁conven	-4910
▁europe	-4911
▁shaped	-4912
ollution	-4913
▁discuss	-4914
▁liquefy	-4915
▁neutral	-4916
▁prepare	-4917
▁horrible	-4918
▁emergency	-4919
▁goverment	-4920
▁seventeen	-4921
▁participating	-4922
izes	-4923
▁lis	-4924
▁winds	-4925
▁toured	-4926
▁Elector	-4927
▁suppose	-4928
▁wasting	-4929
democratic	-4930
▁thoughtful	-4931
ump	-4932
▁24	-4933
ften	-4934
ibly	-4935
▁lips	-4936
▁monit	-4937
▁obstac	-4938
▁Tuesday	-4939
▁reflect	-4940
▁conserve	-4941
▁advancing	-4942
▁meaningfully	-4943
▁similarities	-4944
▁revolutionary	-4945
sle	-4946
▁fill	-4947
▁melt	-4948
▁wether	-4949
▁Traffic	-4950
▁careful	-4951
▁counted	-4952
▁signals	-4953
▁greatest	-4954
▁otherwise	-4955
▁assignment	-4956
▁jud	-4957
▁wom	-4958
rated	-4959
▁thus	-4960
idence	-4961
inking	-4962
▁Reist	-4963
▁Smart	-4964
▁Thank	-4965
▁clues	-4966
▁towns	-4967
▁degree	-4968
▁Besides	-4969
▁produced	-4970
▁forbidden	-4971
▁motorists	-4972
▁controlled	-4973
▁legislature	-4974
AT	-4975
ius	-4976
▁wo	-4977
Long	-4978
arer	-4979
▁Sen	-4980
▁bank	-4981
▁bord	-4982
▁liked	-4983
▁Earths	-4984
▁convey	-4985
▁policy	-4986
iverless	-4987
▁achieve	-4988
▁journey	-4989
▁normally	-4990
▁construct	-4991
▁depression	-4992
)."	-4993
icu	-4994
▁PC	-4995
▁4).	-4996
▁ans	-4997
▁Help	-4998
▁feet	-4999
▁costs	-5000
▁Should	-5001
▁climate	-5002
▁hurting	-5003
▁technically	-5004
▁extraordinary	-5005
ht	-5006
erv	-5007
ffice	-5008
▁pars	-5009
▁sell	-5010
▁engage	-5011
▁logical	-5012
▁trainer	-5013
▁rotating	-5014
▁implications	-5015
▁cop	-5016
▁exs	-5017
▁glo	-5018
▁tons	-5019
▁virt	-5020
▁Kerry	-5021
▁hybrid	-5022
▁recently	-5023
▁dependent	-5024
anim	-5025
ouis	-5026
vada	-5027
▁nec	-5028
▁2005	-5029
▁fias	-5030
▁write	-5031
▁Wyoming	-5032
▁couldnt	-5033
▁display	-5034
▁happend	-5035
▁killing	-5036
▁concerns	-5037
▁awareness	-5038
▁democracy	-5039
▁algorithms	-5040
▁formations	-5041
▁restaurants	-5042
▁unbelievable	-5043
▁GM	-5044
▁unne	-5045
▁1976.	-5046
▁award	-5047
▁nomine	-5048
▁thanks	-5049
▁widely	-5050
▁writes	-5051
ologists	-5052
▁painted	-5053
▁scientif	-5054
▁55	-5055
▁2).	-5056
▁His	-5057
▁Web	-5058
▁imm	-5059
▁bare	-5060
▁fines	-5061
▁recon	-5062
▁assume	-5063
▁Drivers	-5064
▁clearer	-5065
▁correctly	-5066
▁Colombians	-5067
ios	-5068
▁33	-5069
▁zy	-5070
▁Adv	-5071
▁sho	-5072
xygen	-5073
▁Auth	-5074
▁hill	-5075
▁lisa	-5076
▁Rehab	-5077
▁kinda	-5078
▁paper	-5079
▁adding	-5080
▁Federal	-5081
▁Nations	-5082
▁Research	-5083
▁marveled	-5084
▁sometime	-5085
▁struggle	-5086
199	-5087
llig	-5088
ploy	-5089
▁mid	-5090
ained	-5091
▁bona	-5092
▁wake	-5093
rogram	-5094
▁bills	-5095
▁conve	-5096
▁Relief	-5097
▁commer	-5098
▁earths	-5099
▁police	-5100
▁walked	-5101
▁Citizens	-5102
▁eyebrows	-5103
▁skeptics	-5104
▁instantly	-5105
▁paragragh	-5106
Benz	-5107
▁Sci	-5108
▁cri	-5109
itute	-5110
▁1950	-5111
ousand	-5112
▁below	-5113
▁mimic	-5114
▁consequ	-5115
▁ineffective	-5116
urg	-5117
▁"'	-5118
fety	-5119
from	-5120
well	-5121
▁jam	-5122
▁lab	-5123
▁betray	-5124
icularis	-5125
▁anatomy	-5126
▁Electors	-5127
▁enjoyable	-5128
▁fundament	-5129
▁discoveries	-5130
▁difficulties	-5131
hood	-5132
▁und	-5133
ements	-5134
▁heavy	-5135
▁turns	-5136
▁viking	-5137
▁consist	-5138
▁precise	-5139
▁tempert	-5140
▁varying	-5141
▁direction	-5142
▁reasonable	-5143
▁effectively	-5144
OU	-5145
And	-5146
▁7,	-5147
ardo	-5148
some	-5149
▁5,5	-5150
▁foss	-5151
▁outc	-5152
▁early	-5153
▁tests	-5154
▁oxygen	-5155
▁universe	-5156
▁defenders	-5157
▁tecnology	-5158
▁techonology	-5159
▁50%	-5160
▁film	-5161
antage	-5162
▁atmos	-5163
▁meter	-5164
▁occas	-5165
▁fiasco	-5166
▁repair	-5167
▁Register	-5168
▁injuries	-5169
▁purposes	-5170
▁production	-5171
ns	-5172
eday	-5173
▁cro	-5174
▁Back	-5175
▁burn	-5176
▁unit	-5177
▁vary	-5178
recogn	-5179
enators	-5180
▁frames	-5181
▁signed	-5182
▁Perhaps	-5183
▁crossing	-5184
▁rearview	-5185
▁upgrades	-5186
▁zygomatic	-5187
▁presidental	-5188
▁manufactures	-5189
▁Jo	-5190
oute	-5191
▁Get	-5192
▁Does	-5193
▁bull	-5194
▁hosp	-5195
achron	-5196
▁paint	-5197
▁stead	-5198
▁stret	-5199
▁garage	-5200
▁member	-5201
▁creator	-5202
▁regions	-5203
▁recieved	-5204
▁providing	-5205
▁continuing	-5206
▁explanation	-5207
ee	-5208
go	-5209
ator	-5210
▁Whe	-5211
▁cond	-5212
▁segre	-5213
urality	-5214
▁cutting	-5215
▁minutes	-5216
▁flashing	-5217
▁received	-5218
▁Pollution	-5219
ex	-5220
▁ot	-5221
hode	-5222
iate	-5223
▁$25	-5224
▁335	-5225
▁buys	-5226
idates	-5227
▁closet	-5228
▁lastly	-5229
▁anytime	-5230
▁himself	-5231
▁capitals	-5232
▁Thousands	-5233
▁photography	-5234
▁particularly	-5235
▁international	-5236
plus	-5237
▁pul	-5238
▁ult	-5239
arily	-5240
▁Sebe	-5241
▁vict	-5242
▁broke	-5243
▁china	-5244
▁oppos	-5245
▁trait	-5246
▁Almost	-5247
▁govern	-5248
▁oppert	-5249
▁cracked	-5250
▁postive	-5251
▁antilock	-5252
▁included	-5253
ems	-5254
thy	-5255
▁35	-5256
comm	-5257
hour	-5258
when	-5259
▁squ	-5260
vision	-5261
▁Along	-5262
▁Where	-5263
▁wispy	-5264
rograms	-5265
▁caring	-5266
▁safest	-5267
▁cheaper	-5268
▁benifits	-5269
▁outcomes	-5270
▁independently	-5271
▁possibilities	-5272
atly	-5273
board	-5274
ugust	-5275
▁wife	-5276
▁fresh	-5277
▁north	-5278
▁ozone	-5279
▁thumb	-5280
▁warning	-5281
▁articles	-5282
▁receiver	-5283
▁watchman	-5284
▁plurality	-5285
▁representative	-5286
You	-5287
eor	-5288
reh	-5289
Each	-5290
mber	-5291
▁Dem	-5292
leans	-5293
unted	-5294
▁ours	-5295
itions	-5296
onardo	-5297
▁2001.	-5298
▁tough	-5299
▁france	-5300
▁Meaning	-5301
▁noticed	-5302
▁someday	-5303
▁tremend	-5304
▁achieved	-5305
▁circling	-5306
▁intellig	-5307
▁landmark	-5308
▁encourage	-5309
▁seriously	-5310
▁automakers	-5311
▁legislatures	-5312
▁500	-5313
▁err	-5314
aging	-5315
ening	-5316
▁trap	-5317
▁Going	-5318
▁Solar	-5319
▁fuels	-5320
▁movie	-5321
▁Reason	-5322
▁mental	-5323
▁nights	-5324
▁truely	-5325
ouisiana	-5326
▁arguing	-5327
▁mounted	-5328
achronism	-5329
▁countrys	-5330
▁indicate	-5331
bl	-5332
ino	-5333
ager	-5334
lied	-5335
vert	-5336
▁ect	-5337
▁oil	-5338
▁hate	-5339
makers	-5340
▁noted	-5341
▁fossil	-5342
▁drafted	-5343
▁nominee	-5344
▁perhaps	-5345
▁everyones	-5346
▁Throughout	-5347
▁significant	-5348
''.	-5349
▁Oh	-5350
ches	-5351
lier	-5352
oung	-5353
▁118	-5354
▁mel	-5355
▁pat	-5356
▁sixt	-5357
▁wich	-5358
ential	-5359
because	-5360
▁argued	-5361
▁events	-5362
▁occured	-5363
▁recieves	-5364
▁micrograms	-5365
now	-5366
ding	-5367
lity	-5368
▁Two	-5369
▁fed	-5370
iable	-5371
▁vech	-5372
▁newer	-5373
▁ships	-5374
▁Person	-5375
▁School	-5376
▁counts	-5377
▁deadly	-5378
▁devoid	-5379
▁affects	-5380
▁breaking	-5381
▁permitted	-5382
▁automatically	-5383
Be	-5384
Go	-5385
ads	-5386
dge	-5387
andom	-5388
▁meas	-5389
▁peer	-5390
ending	-5391
ference	-5392
imately	-5393
imating	-5394
▁address	-5395
▁shadowy	-5396
ongestion	-5397
specially	-5398
▁expected	-5399
He	-5400
ags	-5401
▁ut	-5402
anks	-5403
sees	-5404
▁dos	-5405
ondon	-5406
sides	-5407
▁Nicu	-5408
▁Self	-5409
▁lift	-5410
▁vers	-5411
dering	-5412
draped	-5413
omical	-5414
▁Rhode	-5415
▁plate	-5416
▁saves	-5417
▁tailp	-5418
ionally	-5419
▁Nevada	-5420
▁excerpt	-5421
▁quicker	-5422
▁wondered	-5423
▁Sincerely	-5424
▁americans	-5425
▁celebrity	-5426
inc	-5427
▁́s	-5428
IDAR	-5429
▁lik	-5430
oying	-5431
▁crow	-5432
▁peop	-5433
Google	-5434
ensors	-5435
pooling	-5436
ruction	-5437
▁barely	-5438
▁stayed	-5439
Striving	-5440
▁markets	-5441
▁needing	-5442
▁variety	-5443
▁website	-5444
ilitation	-5445
▁altitude	-5446
▁conflict	-5447
▁increased	-5448
▁succeeded	-5449
▁differently	-5450
EN	-5451
row	-5452
ugh	-5453
icles	-5454
change	-5455
▁coast	-5456
▁court	-5457
▁malls	-5458
▁notes	-5459
▁Senate	-5460
▁compreh	-5461
▁stopping	-5462
▁perspective	-5463
▁representing	-5464
uted	-5465
▁wit	-5466
efore	-5467
ifies	-5468
▁curb	-5469
▁nick	-5470
▁Tesla	-5471
▁unable	-5472
▁Emotion	-5473
▁regional	-5474
▁creatures	-5475
▁incredible	-5476
▁orbicularis	-5477
alu	-5478
hum	-5479
▁Gen	-5480
▁suic	-5481
▁immed	-5482
▁liken	-5483
▁rough	-5484
▁thank	-5485
▁views	-5486
▁whome	-5487
▁Wouldn	-5488
▁debate	-5489
▁specif	-5490
▁elctoral	-5491
▁eliminate	-5492
▁populated	-5493
▁controvers	-5494
OR	-5495
ipes	-5496
▁61.	-5497
▁Bill	-5498
▁dark	-5499
▁whos	-5500
▁skids	-5501
▁August	-5502
▁random	-5503
▁heavily	-5504
▁starred	-5505
▁Leonardo	-5506
▁commuting	-5507
▁politician	-5508
▁anachronism	-5509
▁segregation	-5510
▁Pr	-5511
▁di	-5512
athy	-5513
zing	-5514
happy	-5515
ertial	-5516
estern	-5517
▁LIDAR	-5518
▁dying	-5519
▁offic	-5520
▁Author	-5521
▁commit	-5522
▁matters	-5523
▁vantage	-5524
▁wherever	-5525
▁absolutely	-5526
▁commercial	-5527
▁scientifically	-5528
1.3	-5529
Some	-5530
ales	-5531
hold	-5532
▁2020.	-5533
▁laser	-5534
▁subst	-5535
certain	-5536
▁Office	-5537
▁Safety	-5538
▁quotes	-5539
▁secret	-5540
▁uneven	-5541
inations	-5542
▁haunted	-5543
▁invasion	-5544
▁likeness	-5545
▁slightly	-5546
▁perfectly	-5547
▁distraction	-5548
▁consequences	-5549
▁Transportation	-5550
ded	-5551
▁guy	-5552
▁tho	-5553
adays	-5554
▁51.3	-5555
▁futur	-5556
▁incor	-5557
▁peace	-5558
osphere	-5559
▁Before	-5560
▁Island	-5561
▁latest	-5562
▁market	-5563
▁patter	-5564
▁surely	-5565
standing	-5566
▁Science	-5567
▁network	-5568
▁underst	-5569
▁inertial	-5570
▁selected	-5571
ufacturers	-5572
▁paintings	-5573
ta	-5574
eep	-5575
une	-5576
▁27	-5577
icul	-5578
kind	-5579
▁...	-5580
▁6).	-5581
▁bot	-5582
▁unp	-5583
overs	-5584
▁61.7	-5585
▁blur	-5586
▁chall	-5587
▁delicate	-5588
▁envision	-5589
▁mysterious	-5590
$31	-5591
MOC	-5592
▁6,	-5593
▁IN	-5594
lege	-5595
trol	-5596
▁tar	-5597
▁sees	-5598
ledged	-5599
▁Table	-5600
▁serve	-5601
umerous	-5602
▁bother	-5603
▁degress	-5604
▁detects	-5605
▁morning	-5606
▁restores	-5607
▁whomever	-5608
▁Especially	-5609
▁surrounding	-5610
ogy	-5611
▁́t	-5612
hips	-5613
▁Fre	-5614
▁Ill	-5615
▁lan	-5616
▁lim	-5617
▁tick	-5618
▁Jimmy	-5619
▁engin	-5620
▁skate	-5621
▁Carter	-5622
Passenger	-5623
▁enjoying	-5624
▁projects	-5625
▁relations	-5626
▁techology	-5627
recognition	-5628
▁implemented	-5629
▁videography	-5630
How	-5631
Luke	-5632
ubic	-5633
▁147	-5634
▁Mod	-5635
▁bar	-5636
▁mal	-5637
onent	-5638
wered	-5639
▁Based	-5640
▁behav	-5641
▁fatal	-5642
▁nickn	-5643
▁agreed	-5644
▁recong	-5645
▁occuring	-5646
▁announced	-5647
▁conditons	-5648
▁comparison	-5649
▁convincing	-5650
9.	-5651
Im	-5652
erd	-5653
mly	-5654
iest	-5655
▁Mes	-5656
▁sand	-5657
▁sytem	-5658
▁whose	-5659
▁Whether	-5660
▁treated	-5661
▁constant	-5662
▁purchase	-5663
▁obstacles	-5664
▁typically	-5665
dis	-5666
unic	-5667
▁Hop	-5668
▁pal	-5669
valed	-5670
▁elet	-5671
▁fifty	-5672
▁decode	-5673
▁hotter	-5674
▁ladder	-5675
ological	-5676
▁checkout	-5677
▁opposite	-5678
▁stronger	-5679
▁wondering	-5680
▁opportunities	-5681
▁	-5682
irl	-5683
auts	-5684
nger	-5685
▁rul	-5686
▁ton	-5687
iburg	-5688
takes	-5689
▁magn	-5690
▁till	-5691
▁General	-5692
▁Orleans	-5693
▁refused	-5694
▁benificial	-5695
▁researching	-5696
▁Rehabilitation	-5697
80	-5698
▁dow	-5699
After	-5700
▁loss	-5701
▁prev	-5702
▁force	-5703
▁hardly	-5704
▁pitted	-5705
▁pulled	-5706
▁cropped	-5707
▁tailpipes	-5708
▁representation	-5709
Why	-5710
▁lu	-5711
▁See	-5712
▁cab	-5713
olina	-5714
▁lang	-5715
▁mona	-5716
▁paid	-5717
▁pool	-5718
▁misle	-5719
▁solid	-5720
▁acting	-5721
▁interp	-5722
ublicans	-5723
▁hitting	-5724
▁observe	-5725
▁respect	-5726
▁intended	-5727
▁location	-5728
▁thousand	-5729
▁Something	-5730
▁returning	-5731
▁intresting	-5732
▁particulate	-5733
▁complications	-5734
ec	-5735
mount	-5736
pathy	-5737
▁1968	-5738
▁Both	-5739
▁crew	-5740
▁rare	-5741
▁resc	-5742
▁west	-5743
▁Addit	-5744
▁range	-5745
▁Agency	-5746
▁500,000	-5747
▁conveys	-5748
▁endless	-5749
▁controlling	-5750
▁characteristics	-5751
vir	-5752
ague	-5753
aion	-5754
iant	-5755
▁emb	-5756
▁fog	-5757
▁tin	-5758
there	-5759
▁Cons	-5760
▁Thus	-5761
▁date	-5762
▁drew	-5763
▁cheap	-5764
▁globe	-5765
ificate	-5766
▁Motors	-5767
▁costly	-5768
▁injury	-5769
▁minute	-5770
animated	-5771
▁avoided	-5772
▁colleges	-5773
▁differnt	-5774
▁exchange	-5775
▁diverless	-5776
▁fantastic	-5777
▁independent	-5778
aii	-5779
cet	-5780
iens	-5781
thor	-5782
▁eer	-5783
▁mak	-5784
▁adds	-5785
▁draw	-5786
seeing	-5787
▁handy	-5788
▁minim	-5789
▁reson	-5790
▁faking	-5791
▁warmer	-5792
▁anyways	-5793
▁decides	-5794
▁watched	-5795
▁Louisiana	-5796
▁continued	-5797
▁rollovers	-5798
calculation	-5799
▁expressing	-5800
LL	-5801
▁#	-5802
arly	-5803
cies	-5804
olgy	-5805
this	-5806
anted	-5807
▁Feed	-5808
▁Geor	-5809
▁audi	-5810
▁trav	-5811
fortun	-5812
▁1960,	-5813
▁ideal	-5814
▁regul	-5815
▁Theory	-5816
▁raises	-5817
▁Profess	-5818
▁engines	-5819
▁transit	-5820
▁workers	-5821
▁floating	-5822
▁improves	-5823
gu	-5824
ptop	-5825
▁Fut	-5826
▁eld	-5827
▁ven	-5828
Earth	-5829
itled	-5830
▁butt	-5831
▁cred	-5832
▁died	-5833
utting	-5834
▁alter	-5835
▁cubic	-5836
▁choices	-5837
▁deserve	-5838
▁maintain	-5839
▁realized	-5840
gaz	-5841
lit	-5842
▁21	-5843
▁Lo	-5844
▁joy	-5845
▁wil	-5846
hered	-5847
▁Read	-5848
▁dumb	-5849
▁nasa	-5850
▁Could	-5851
▁minor	-5852
▁errors	-5853
▁fairly	-5854
▁laptop	-5855
▁recall	-5856
▁usuage	-5857
▁persuit	-5858
▁centered	-5859
▁feedback	-5860
▁Conclusion	-5861
.3	-5862
gs	-5863
let	-5864
▁3)	-5865
rage	-5866
▁Big	-5867
▁den	-5868
esity	-5869
inois	-5870
▁Keep	-5871
▁plain	-5872
▁Someone	-5873
▁rivaled	-5874
▁younger	-5875
▁careless	-5876
▁enormous	-5877
▁latitude	-5878
▁lowering	-5879
▁produces	-5880
▁regarded	-5881
▁visitors	-5882
▁physically	-5883
iet	-5884
▁Law	-5885
ussel	-5886
▁buis	-5887
formed	-5888
▁arise	-5889
▁London	-5890
▁Taking	-5891
▁auther	-5892
▁promot	-5893
▁interst	-5894
▁relying	-5895
▁turning	-5896
▁visited	-5897
▁Emotions	-5898
▁laziness	-5899
▁nickname	-5900
▁convinced	-5901
▁experienced	-5902
.(	-5903
All	-5904
berg	-5905
upar	-5906
▁70%	-5907
▁ale	-5908
▁enh	-5909
pting	-5910
▁mode	-5911
▁woud	-5912
▁colom	-5913
▁downt	-5914
▁woven	-5915
cession	-5916
▁George	-5917
▁excell	-5918
▁favors	-5919
▁houses	-5920
▁Reuters	-5921
▁boredom	-5922
peratures	-5923
▁Carolina	-5924
▁friendly	-5925
▁described	-5926
▁emmisions	-5927
▁Electorial	-5928
▁fascinating	-5929
rain	-5930
rial	-5931
▁bab	-5932
▁vast	-5933
▁warn	-5934
▁messa	-5935
▁picks	-5936
▁advert	-5937
▁becuse	-5938
▁eerily	-5939
▁monday	-5940
▁emtions	-5941
▁pledged	-5942
▁Consider	-5943
▁Feedback	-5944
▁detecting	-5945
▁innovative	-5946
▁statements	-5947
▁delegations	-5948
ov	-5949
ING	-5950
nce	-5951
▁va	-5952
town	-5953
▁Haw	-5954
olish	-5955
oving	-5956
▁crit	-5957
▁ruin	-5958
▁spee	-5959
▁toll	-5960
▁yeah	-5961
▁Later	-5962
▁judge	-5963
▁motiv	-5964
▁ruling	-5965
▁Getting	-5966
▁highest	-5967
▁probaly	-5968
▁Freiburg	-5969
▁cultures	-5970
▁environmental	-5971
,''	-5972
▁29	-5973
▁obt	-5974
▁shy	-5975
▁Gold	-5976
ocrats	-5977
▁indic	-5978
▁smoke	-5979
▁stage	-5980
▁disast	-5981
▁target	-5982
▁Evening	-5983
▁enforce	-5984
▁selects	-5985
▁stargaz	-5986
▁sideways	-5987
▁striving	-5988
▁Protection	-5989
▁importance	-5990
▁oppertunity	-5991
gain	-5992
uses	-5993
edent	-5994
isput	-5995
▁atle	-5996
▁germ	-5997
cluding	-5998
▁manual	-5999
▁windsh	-6000
▁Helping	-6001
▁doctors	-6002
▁earlier	-6003
▁suprise	-6004
▁betrayed	-6005
▁educated	-6006
▁lawmakers	-6007
▁realistic	-6008
7,	-6009
▁aid	-6010
▁ine	-6011
▁pow	-6012
▁ball	-6013
▁beli	-6014
▁sust	-6015
▁trad	-6016
ushing	-6017
▁carry	-6018
illions	-6019
▁reward	-6020
▁ordinary	-6021
▁scanning	-6022
▁carefully	-6023
▁experince	-6024
▁electrical	-6025
▁windshield	-6026
gth	-6027
hel	-6028
▁rap	-6029
▁Cali	-6030
▁bags	-6031
▁fort	-6032
▁hang	-6033
▁lies	-6034
▁lisc	-6035
▁pion	-6036
▁grand	-6037
▁seper	-6038
▁throw	-6039
▁Things	-6040
▁remind	-6041
lectoral	-6042
▁eastern	-6043
▁accuracy	-6044
▁observes	-6045
Congestion	-6046
▁breathing	-6047
▁buildings	-6048
▁Personally	-6049
▁TO	-6050
▁fum	-6051
iably	-6052
light	-6053
ruled	-6054
▁($31	-6055
▁chee	-6056
▁chem	-6057
▁insp	-6058
▁span	-6059
angers	-6060
phones	-6061
iculous	-6062
▁Theres	-6063
▁econom	-6064
▁transp	-6065
▁atleast	-6066
▁borders	-6067
▁risking	-6068
▁behavior	-6069
▁steadily	-6070
estimating	-6071
▁definetly	-6072
▁tempature	-6073
▁occasional	-6074
▁photographs	-6075
▁experimental	-6076
At	-6077
Pl	-6078
▁".	-6079
▁80	-6080
▁9,	-6081
ened	-6082
five	-6083
▁circ	-6084
ground	-6085
▁beams	-6086
▁local	-6087
▁toxic	-6088
▁tries	-6089
▁catast	-6090
▁explor	-6091
▁contact	-6092
▁leaders	-6093
▁regarding	-6094
▁envisioned	-6095
▁programmed	-6096
▁discovering	-6097
RE	-6098
ma	-6099
▁;	-6100
▁sel	-6101
inton	-6102
▁Redu	-6103
▁cust	-6104
igning	-6105
usions	-6106
▁headed	-6107
▁listed	-6108
▁claimed	-6109
▁species	-6110
▁commonly	-6111
▁Congestion	-6112
▁misleading	-6113
▁interaction	-6114
▁fundamentally	-6115
3).	-6116
rust	-6117
▁sor	-6118
ailed	-6119
▁Mesa	-6120
▁debt	-6121
▁Again	-6122
▁chair	-6123
▁evalu	-6124
▁falls	-6125
▁forth	-6126
▁input	-6127
▁witch	-6128
▁yours	-6129
ionment	-6130
reading	-6131
vidence	-6132
▁Recent	-6133
▁Valled	-6134
▁senate	-6135
▁compact	-6136
▁landfrom	-6137
autonomous	-6138
▁interpret	-6139
▁represents	-6140
▁television	-6141
TH	-6142
▁AN	-6143
iven	-6144
▁5).	-6145
▁Acc	-6146
▁era	-6147
▁teh	-6148
▁tha	-6149
ferent	-6150
▁funny	-6151
▁uncom	-6152
▁waves	-6153
▁Hawaii	-6154
▁confir	-6155
▁virtue	-6156
▁worlds	-6157
▁alerted	-6158
▁funding	-6159
▁mystery	-6160
▁staring	-6161
isputable	-6162
▁drinking	-6163
▁vibrating	-6164
▁astronauts	-6165
▁controllers	-6166
▁limitations	-6167
▁Additionally	-6168
▁segregationists	-6169
ago	-6170
rupt	-6171
uary	-6172
▁Mar	-6173
▁Out	-6174
▁Unt	-6175
▁1980	-6176
▁suit	-6177
▁admit	-6178
▁bound	-6179
▁outer	-6180
▁shoud	-6181
control	-6182
▁assert	-6183
▁bought	-6184
▁facing	-6185
▁immedi	-6186
▁suface	-6187
▁Sensors	-6188
▁failing	-6189
▁practice	-6190
▁lateralis	-6191
▁introduced	-6192
▁developement	-6193
ae	-6194
uc	-6195
uld	-6196
▁2)	-6197
cars	-6198
road	-6199
▁stu	-6200
aming	-6201
▁conc	-6202
culate	-6203
▁awake	-6204
▁blind	-6205
▁cares	-6206
▁downf	-6207
▁scien	-6208
▁tools	-6209
▁content	-6210
▁mankind	-6211
▁hospital	-6212
▁precisely	-6213
▁projected	-6214
▁recession	-6215
certainment	-6216
▁educational	-6217
▁q	-6218
▁1)	-6219
▁Sim	-6220
▁bur	-6221
▁Luck	-6222
▁exha	-6223
erally	-6224
▁5,500	-6225
▁facin	-6226
▁grade	-6227
▁dollar	-6228
▁signal	-6229
▁writer	-6230
▁melting	-6231
▁eighteen	-6232
▁hardware	-6233
▁informed	-6234
▁previously	-6235
▁!	-6236
llo	-6237
▁Ever	-6238
▁calm	-6239
▁unem	-6240
Duffer	-6241
worthy	-6242
▁Waves	-6243
▁drink	-6244
▁fumes	-6245
Imagine	-6246
isingly	-6247
▁denser	-6248
▁incent	-6249
▁scenar	-6250
ractical	-6251
▁Firstly	-6252
▁catastrop	-6253
▁Valledupar	-6254
▁preference	-6255
asy	-6256
ule	-6257
inte	-6258
▁MOC	-6259
▁caut	-6260
▁wate	-6261
▁Envir	-6262
▁drama	-6263
▁rapid	-6264
▁rides	-6265
Because	-6266
▁desire	-6267
▁capture	-6268
▁buisness	-6269
▁opposing	-6270
▁updating	-6271
▁Institute	-6272
fun	-6273
▁2:	-6274
atin	-6275
uber	-6276
▁79.	-6277
▁Exp	-6278
urate	-6279
▁unex	-6280
▁Colle	-6281
▁holes	-6282
ithless	-6283
▁Either	-6284
▁exhaust	-6285
▁Goldberg	-6286
▁Illinois	-6287
▁appropri	-6288
▁installed	-6289
▁convenient	-6290
VE	-6291
do	-6292
uit	-6293
▁Ve	-6294
erly	-6295
reet	-6296
▁cas	-6297
ivery	-6298
ivity	-6299
▁aunt	-6300
ocking	-6301
ussels	-6302
▁1945,	-6303
▁begun	-6304
▁plays	-6305
▁rainy	-6306
▁trick	-6307
▁Cities	-6308
▁disapp	-6309
▁sooner	-6310
▁Beckman	-6311
▁corners	-6312
▁opening	-6313
▁passing	-6314
▁pattern	-6315
▁victory	-6316
▁answered	-6317
▁speeding	-6318
▁announces	-6319
▁excellent	-6320
▁incentive	-6321
▁stargazer	-6322
▁Everything	-6323
▁incredibly	-6324
▁indisputable	-6325
'.	-6326
ont	-6327
uer	-6328
▁3.	-6329
▁CO	-6330
aing	-6331
fact	-6332
rual	-6333
urity	-6334
▁dust	-6335
▁guar	-6336
▁Motor	-6337
▁Right	-6338
asearch	-6339
smiling	-6340
▁hoping	-6341
▁yester	-6342
▁Walking	-6343
▁analyze	-6344
▁inhabit	-6345
▁obesity	-6346
▁section	-6347
▁Striving	-6348
▁audience	-6349
▁senators	-6350
▁colleague	-6351
▁experiences	-6352
▁oh	-6353
▁wi	-6354
seat	-6355
▁Res	-6356
▁girl	-6357
▁grab	-6358
▁oris	-6359
▁pock	-6360
▁wand	-6361
anuary	-6362
▁Swing	-6363
▁realy	-6364
▁resol	-6365
▁aswell	-6366
▁drving	-6367
▁leaves	-6368
▁topics	-6369
▁crossed	-6370
▁drastic	-6371
▁message	-6372
▁somehow	-6373
▁upgrade	-6374
▁Advanced	-6375
▁detailed	-6376
▁rendering	-6377
▁structures	-6378
▁ultimately	-6379
▁Exploration	-6380
▁specifically	-6381
.",	-6382
char	-6383
irts	-6384
itate	-6385
▁glad	-6386
▁rich	-6387
▁seve	-6388
obiles	-6389
owning	-6390
▁Green	-6391
▁intri	-6392
▁shock	-6393
▁weigh	-6394
autions	-6395
▁classm	-6396
▁peaked	-6397
▁pieces	-6398
▁scores	-6399
▁senors	-6400
▁somone	-6401
▁enjoyed	-6402
▁removed	-6403
▁rescind	-6404
andidates	-6405
happiness	-6406
▁reciever	-6407
▁subjects	-6408
▁Hopefully	-6409
▁comparing	-6410
▁prevented	-6411
▁yesterday	-6412
▁limitation	-6413
▁manufacturing	-6414
▁:	-6415
lar	-6416
elve	-6417
▁7).	-6418
▁dic	-6419
▁lux	-6420
erves	-6421
idate	-6422
obody	-6423
▁Land	-6424
▁Rode	-6425
▁exec	-6426
▁ness	-6427
Plumer	-6428
atural	-6429
▁invar	-6430
▁laugh	-6431
▁lawsu	-6432
▁names	-6433
▁opion	-6434
▁walks	-6435
▁awards	-6436
▁faults	-6437
▁havent	-6438
▁videos	-6439
▁Reading	-6440
▁failure	-6441
▁updated	-6442
▁attempts	-6443
▁contains	-6444
▁manually	-6445
▁prospect	-6446
▁declaring	-6447
▁stretched	-6448
▁anatomical	-6449
▁combination	-6450
▁participated	-6451
ION	-6452
itly	-6453
▁Act	-6454
▁Bas	-6455
▁fac	-6456
ateur	-6457
going	-6458
nheit	-6459
oster	-6460
▁Soon	-6461
▁benf	-6462
▁loose	-6463
▁deeper	-6464
▁expres	-6465
▁Systems	-6466
▁counsel	-6467
▁medical	-6468
▁suicide	-6469
▁watered	-6470
▁billions	-6471
▁classrom	-6472
▁nowadays	-6473
▁Companies	-6474
▁necessity	-6475
▁remaining	-6476
▁determined	-6477
▁regulations	-6478
4).	-6479
Not	-6480
ume	-6481
▁Ye	-6482
▁114	-6483
▁Run	-6484
orius	-6485
▁David	-6486
▁boost	-6487
▁incon	-6488
▁mayor	-6489
▁taxes	-6490
▁blurry	-6491
▁demand	-6492
▁strive	-6493
▁succes	-6494
fortable	-6495
resident	-6496
▁Clinton	-6497
▁convers	-6498
▁decline	-6499
▁deliver	-6500
▁hazards	-6501
▁opposed	-6502
▁complain	-6503
▁detected	-6504
▁language	-6505
▁shocking	-6506
▁teenager	-6507
▁telecomm	-6508
▁distances	-6509
▁hazardous	-6510
An	-6511
rock	-6512
▁bod	-6513
▁sus	-6514
abled	-6515
allup	-6516
▁Ohio	-6517
▁jump	-6518
liable	-6519
▁brand	-6520
▁dosen	-6521
▁moved	-6522
▁ought	-6523
▁sixty	-6524
▁slipp	-6525
▁women	-6526
theless	-6527
▁busses	-6528
▁excers	-6529
▁months	-6530
▁stands	-6531
▁amateur	-6532
▁station	-6533
cientists	-6534
transport	-6535
▁cautious	-6536
▁efficent	-6537
▁figuring	-6538
▁products	-6539
▁sleeping	-6540
▁speaking	-6541
▁suitable	-6542
▁suprised	-6543
▁surveyor	-6544
▁unemploy	-6545
▁Professor	-6546
▁involving	-6547
▁qualities	-6548
▁accessible	-6549
▁understandable	-6550
12	-6551
ala	-6552
▁AF	-6553
▁Gas	-6554
under	-6555
▁79.7	-6556
▁ends	-6557
▁indu	-6558
▁manu	-6559
▁ties	-6560
school	-6561
▁ambit	-6562
▁cargo	-6563
▁Nobody	-6564
▁incase	-6565
▁pollute	-6566
▁unhappy	-6567
▁relaxing	-6568
▁tightens	-6569
▁believing	-6570
▁envisions	-6571
▁literally	-6572
▁weighting	-6573
▁futuristic	-6574
▁pedestrian	-6575
▁republican	-6576
uss	-6577
▁9%	-6578
umst	-6579
▁awh	-6580
▁fan	-6581
after	-6582
iring	-6583
ograp	-6584
▁53.3	-6585
▁Mart	-6586
▁adop	-6587
▁deci	-6588
▁ecos	-6589
▁expe	-6590
▁sail	-6591
▁Three	-6592
▁relies	-6593
▁speech	-6594
▁update	-6595
▁wasted	-6596
▁Western	-6597
▁cleaned	-6598
▁crashed	-6599
▁defense	-6600
▁evening	-6601
▁farther	-6602
▁intense	-6603
▁natrual	-6604
▁driveway	-6605
▁snapping	-6606
▁suddenly	-6607
▁concerned	-6608
▁frustrated	-6609
▁protection	-6610
pportionment	-6611
▁percentages	-6612
▁sightseeing	-6613
▁neighborhood	-6614
▁photographed	-6615
.,	-6616
iw	-6617
▁15	-6618
▁12%	-6619
▁bat	-6620
▁bul	-6621
▁ded	-6622
incer	-6623
▁Take	-6624
▁dirt	-6625
▁forg	-6626
▁pace	-6627
▁1995.	-6628
▁Event	-6629
▁Still	-6630
▁perce	-6631
▁plane	-6632
▁route	-6633
nection	-6634
▁dreams	-6635
▁messed	-6636
▁resons	-6637
▁decreed	-6638
▁aircraft	-6639
▁evolving	-6640
▁Manufacturers	-6641
Dr	-6642
200	-6643
Also	-6644
atie	-6645
eded	-6646
look	-6647
▁CAR	-6648
▁Dis	-6649
▁fro	-6650
▁hon	-6651
▁Char	-6652
▁elec	-6653
▁exsp	-6654
▁perc	-6655
▁user	-6656
driver	-6657
▁Hello	-6658
▁depth	-6659
▁items	-6660
▁shoot	-6661
▁sport	-6662
▁actors	-6663
▁futher	-6664
▁pixels	-6665
▁selves	-6666
▁twelve	-6667
▁install	-6668
▁seconds	-6669
▁persuade	-6670
▁resource	-6671
▁completed	-6672
▁downsides	-6673
▁interests	-6674
▁alternatives	-6675
"?	-6676
CI	-6677
She	-6678
▁Lu	-6679
Many	-6680
ails	-6681
erner	-6682
rates	-6683
▁Alot	-6684
▁beat	-6685
▁clue	-6686
▁expi	-6687
people	-6688
▁brill	-6689
▁drown	-6690
▁enter	-6691
▁peers	-6692
ologist	-6693
▁Twenty	-6694
▁Chamber	-6695
▁applied	-6696
▁burning	-6697
▁neither	-6698
▁partner	-6699
▁peering	-6700
▁extremly	-6701
▁slippery	-6702
▁throught	-6703
▁traveled	-6704
▁ecosystem	-6705
▁ridiculous	-6706
▁statistics	-6707
▁impractical	-6708
▁understands	-6709
▁unnecessary	-6710
▁significantly	-6711
ued	-6712
▁WI	-6713
aken	-6714
illy	-6715
▁Sea	-6716
▁hab	-6717
▁ice	-6718
▁pan	-6719
▁uns	-6720
aling	-6721
would	-6722
▁Kids	-6723
▁Nove	-6724
▁bond	-6725
▁evry	-6726
▁fool	-6727
▁lung	-6728
▁shel	-6729
▁weak	-6730
▁wild	-6731
▁abund	-6732
▁angle	-6733
▁calls	-6734
▁sorts	-6735
▁truck	-6736
▁insane	-6737
▁lazier	-6738
▁rising	-6739
▁missing	-6740
▁sharing	-6741
▁witness	-6742
abilities	-6743
▁Reducing	-6744
▁frowning	-6745
▁risorius	-6746
▁disasters	-6747
▁eachother	-6748
▁themselfs	-6749
▁invariably	-6750
▁unreliable	-6751
▁Researchers	-6752
▁tv	-6753
▁ur	-6754
▁zo	-6755
fear	-6756
▁Fare	-6757
▁Main	-6758
▁asks	-6759
▁chal	-6760
▁dies	-6761
▁faci	-6762
▁mall	-6763
▁neat	-6764
inated	-6765
▁bones	-6766
▁coinc	-6767
▁finan	-6768
▁prime	-6769
▁safty	-6770
▁awhile	-6771
▁bogota	-6772
▁finish	-6773
▁resist	-6774
▁supply	-6775
▁theirs	-6776
fficient	-6777
▁Certain	-6778
▁Nothing	-6779
▁Studies	-6780
▁calling	-6781
▁forming	-6782
▁$40,000,	-6783
▁Brussels	-6784
▁drivless	-6785
▁services	-6786
▁concluded	-6787
▁essential	-6788
▁listening	-6789
▁connection	-6790
▁industries	-6791
▁introduction	-6792
▁uncomfortable	-6793
8,	-6794
LE	-6795
▁,"	-6796
▁17	-6797
▁Ha	-6798
inal	-6799
olpe	-6800
cious	-6801
▁hopes	-6802
▁recom	-6803
▁vital	-6804
endment	-6805
▁analys	-6806
▁unreal	-6807
▁useing	-6808
ifferent	-6809
▁factual	-6810
▁guarant	-6811
▁hearing	-6812
▁promise	-6813
▁Numerous	-6814
▁animated	-6815
▁mountain	-6816
▁professor	-6817
▁resembled	-6818
▁impediment	-6819
▁electricity	-6820
▁distractions	-6821
▁demonstration	-6822
ds	-6823
?".	-6824
iol	-6825
▁SS	-6826
-199	-6827
anch	-6828
ares	-6829
aska	-6830
ours	-6831
▁abo	-6832
▁dir	-6833
arity	-6834
erdam	-6835
puter	-6836
▁fate	-6837
▁nerv	-6838
▁Count	-6839
▁boats	-6840
▁canad	-6841
▁films	-6842
▁resul	-6843
eration	-6844
sterdam	-6845
▁equals	-6846
▁shared	-6847
▁January	-6848
▁reached	-6849
▁companys	-6850
▁contries	-6851
▁glitches	-6852
▁restrict	-6853
▁similiar	-6854
▁frontalis	-6855
▁intrested	-6856
▁reasearch	-6857
▁assertions	-6858
▁understood	-6859
apportionment	-6860
▁Presidential	-6861
AU	-6862
Ch	-6863
ls	-6864
Free	-6865
then	-6866
with	-6867
ytem	-6868
▁57%	-6869
▁AND	-6870
▁nin	-6871
-1990	-6872
human	-6873
phone	-6874
▁1992	-6875
▁baby	-6876
▁proc	-6877
▁pure	-6878
▁slid	-6879
▁wear	-6880
ension	-6881
▁backs	-6882
▁brave	-6883
▁reven	-6884
▁sence	-6885
▁south	-6886
ounding	-6887
▁Honest	-6888
▁Voting	-6889
▁attent	-6890
▁compet	-6891
▁disput	-6892
▁hacked	-6893
▁belives	-6894
▁November	-6895
▁arriving	-6896
▁fighting	-6897
▁innocent	-6898
▁mentally	-6899
▁politics	-6900
▁security	-6901
▁promising	-6902
▁wandering	-6903
▁Automakers	-6904
▁comprehend	-6905
▁conclution	-6906
ED	-6907
lide	-6908
logy	-6909
otic	-6910
zens	-6911
▁90%	-6912
▁AFL	-6913
▁cow	-6914
asure	-6915
power	-6916
▁2006	-6917
▁door	-6918
▁ease	-6919
▁plug	-6920
▁quir	-6921
▁tram	-6922
Selsky	-6923
▁infer	-6924
▁strip	-6925
▁becaus	-6926
▁fixing	-6927
▁orders	-6928
▁contrad	-6929
▁damaged	-6930
▁parties	-6931
▁valuble	-6932
▁Changing	-6933
▁chemicals	-6934
▁engineers	-6935
▁reactions	-6936
▁Republican	-6937
▁destroying	-6938
▁nationwide	-6939
▁assignments	-6940
▁entertaining	-6941
AS	-6942
To	-6943
CIO	-6944
ils	-6945
sur	-6946
▁1:	-6947
▁3:	-6948
such	-6949
▁NOT	-6950
apers	-6951
seven	-6952
▁euro	-6953
▁hole	-6954
boxing	-6955
▁outsk	-6956
▁peice	-6957
▁proud	-6958
▁Gallup	-6959
▁flawed	-6960
▁subtle	-6961
▁Charles	-6962
▁chatter	-6963
▁environ	-6964
▁exceeds	-6965
▁imitate	-6966
▁usefull	-6967
formation	-6968
▁circumst	-6969
▁expenses	-6970
▁foresees	-6971
▁theorist	-6972
ertificate	-6973
▁Passenger	-6974
▁ambitious	-6975
▁countless	-6976
▁increases	-6977
▁technical	-6978
▁Greenhouse	-6979
▁calculation	-6980
▁intelligent	-6981
▁practically	-6982
▁accomplished	-6983
?.	-6984
By	-6985
.'"	-6986
els	-6987
lig	-6988
por	-6989
▁Hi	-6990
Well	-6991
inct	-6992
▁Ant	-6993
▁Sun	-6994
▁gre	-6995
▁mob	-6996
Under	-6997
icago	-6998
osion	-6999
▁ages	-7000
▁mart	-7001
▁rage	-7002
urious	-7003
▁appre	-7004
▁finds	-7005
▁giant	-7006
▁threw	-7007
fencing	-7008
▁dosent	-7009
▁excerc	-7010
▁makers	-7011
▁quirks	-7012
▁smiles	-7013
▁certian	-7014
▁confuse	-7015
▁dischar	-7016
▁feeding	-7017
▁precent	-7018
▁revenue	-7019
▁selling	-7020
▁shortly	-7021
▁turnout	-7022
▁Honestly	-7023
▁Basically	-7024
▁overruled	-7025
▁enormously	-7026
▁emotionally	-7027
▁immediately	-7028
▁applications	-7029
▁destinations	-7030
▁manufactured	-7031
IC	-7032
mes	-7033
▁fur	-7034
▁sym	-7035
anges	-7036
▁thay	-7037
▁Huber	-7038
▁Never	-7039
▁Thanks	-7040
▁biased	-7041
▁models	-7042
▁served	-7043
▁square	-7044
▁trucks	-7045
▁captain	-7046
▁federal	-7047
▁nervous	-7048
▁skating	-7049
▁sustain	-7050
▁terrain	-7051
portation	-7052
▁operated	-7053
▁resulting	-7054
▁investment	-7055
▁preventing	-7056
▁outstanding	-7057
IS	-7058
urd	-7059
▁Ar	-7060
ccer	-7061
gets	-7062
▁vac	-7063
ubbed	-7064
▁init	-7065
isting	-7066
rested	-7067
▁Alien	-7068
▁peole	-7069
▁pione	-7070
▁youre	-7071
ogether	-7072
▁groups	-7073
▁growth	-7074
▁rapidly	-7075
▁worries	-7076
▁vehicals	-7077
▁Farenheit	-7078
▁appealing	-7079
▁everytime	-7080
▁suffering	-7081
▁attempting	-7082
▁background	-7083
▁experiance	-7084
▁spaceships	-7085
▁precautions	-7086
▁instructions	-7087
OG	-7088
lt	-7089
Its	-7090
▁'9	-7091
▁ef	-7092
iche	-7093
teen	-7094
▁$31	-7095
▁Sep	-7096
▁unf	-7097
aired	-7098
eling	-7099
ittle	-7100
▁Laws	-7101
▁boys	-7102
▁evey	-7103
▁loud	-7104
ointed	-7105
▁2009,	-7106
▁casts	-7107
▁occup	-7108
▁woman	-7109
▁atomsp	-7110
▁bodies	-7111
▁extent	-7112
▁lessen	-7113
▁offers	-7114
onmental	-7115
▁Article	-7116
▁contain	-7117
▁damages	-7118
▁existed	-7119
▁relaxed	-7120
▁teaches	-7121
▁vehical	-7122
Thousands	-7123
▁Colleges	-7124
▁columbia	-7125
▁starters	-7126
▁assisting	-7127
▁incorrect	-7128
▁lifeforms	-7129
▁officials	-7130
▁outskirts	-7131
▁discharged	-7132
▁catastrophe	-7133
▁experiments	-7134
acc	-7135
▁Gr	-7136
▁OF	-7137
▁inn	-7138
▁pas	-7139
claim	-7140
ocrat	-7141
▁fire	-7142
icated	-7143
inting	-7144
irable	-7145
ocated	-7146
▁Katie	-7147
▁Until	-7148
▁embar	-7149
▁overw	-7150
▁scale	-7151
▁shall	-7152
erating	-7153
▁Commer	-7154
▁arrive	-7155
▁execut	-7156
▁forgot	-7157
▁peolpe	-7158
▁sucess	-7159
▁tempet	-7160
▁trains	-7161
ventions	-7162
▁beliefs	-7163
▁central	-7164
▁harming	-7165
▁serving	-7166
▁stories	-7167
Driveless	-7168
▁Everyday	-7169
▁analysis	-7170
▁awarding	-7171
▁beacause	-7172
▁begining	-7173
▁pursuing	-7174
▁Amsterdam	-7175
▁Colombian	-7176
▁Meanwhile	-7177
▁alternate	-7178
▁campaigns	-7179
▁discusses	-7180
▁programed	-7181
▁searching	-7182
▁Candidates	-7183
▁Conspiracy	-7184
▁accurately	-7185
▁Republicans	-7186
▁tremendously	-7187
bu	-7188
men	-7189
who	-7190
▁).	-7191
▁Sw	-7192
made	-7193
▁Bar	-7194
▁hike	-7195
▁note	-7196
▁pose	-7197
▁wars	-7198
Posner	-7199
ooster	-7200
▁chief	-7201
▁music	-7202
hermore	-7203
viously	-7204
▁($31).	-7205
▁Modern	-7206
▁affair	-7207
▁fourth	-7208
▁hassle	-7209
▁uncons	-7210
▁whould	-7211
entially	-7212
▁checked	-7213
▁hybrids	-7214
▁intoxic	-7215
▁bullying	-7216
▁prevents	-7217
▁reconize	-7218
▁conflicts	-7219
▁landslide	-7220
▁operating	-7221
▁organized	-7222
▁worldwide	-7223
▁developments	-7224
▁successfully	-7225
▁Ascertainment	-7226
▁transportaion	-7227
10	-7228
top	-7229
zed	-7230
▁."	-7231
erts	-7232
mary	-7233
▁dut	-7234
inner	-7235
▁band	-7236
▁enth	-7237
▁hits	-7238
▁mere	-7239
▁quit	-7240
▁Often	-7241
▁grown	-7242
▁opens	-7243
sharing	-7244
▁Beyond	-7245
▁Sincer	-7246
▁ignore	-7247
▁obtain	-7248
▁soccer	-7249
▁elderly	-7250
▁mapping	-7251
According	-7252
▁Commerce	-7253
▁Millions	-7254
▁computor	-7255
▁upcoming	-7256
▁abilities	-7257
▁recognizing	-7258
',	-7259
mor	-7260
usi	-7261
▁4)	-7262
▁ah	-7263
book	-7264
itle	-7265
resp	-7266
yles	-7267
▁USA	-7268
▁bum	-7269
▁eve	-7270
Huang	-7271
somet	-7272
venus	-7273
▁Part	-7274
▁impl	-7275
▁tran	-7276
▁Doing	-7277
▁allot	-7278
▁moods	-7279
▁scans	-7280
▁sould	-7281
Besides	-7282
▁Anyone	-7283
▁relate	-7284
▁unpred	-7285
restrial	-7286
▁Company	-7287
▁listing	-7288
▁powered	-7289
▁simular	-7290
▁skyrock	-7291
ographing	-7292
▁approved	-7293
▁lawsuits	-7294
▁proposed	-7295
▁evolution	-7296
▁delegation	-7297
▁respective	-7298
▁efficiently	-7299
IT	-7300
tee	-7301
fare	-7302
have	-7303
ints	-7304
oled	-7305
▁God	-7306
▁box	-7307
▁fir	-7308
bably	-7309
▁furt	-7310
▁soem	-7311
Eckman	-7312
▁Lukes	-7313
▁citys	-7314
▁excit	-7315
▁regre	-7316
▁stars	-7317
▁swish	-7318
▁Werner	-7319
▁crafts	-7320
▁hourly	-7321
▁learns	-7322
▁master	-7323
▁quoted	-7324
chanical	-7325
▁Keeping	-7326
▁artists	-7327
▁outrage	-7328
▁pushing	-7329
▁measures	-7330
▁seperate	-7331
▁survival	-7332
▁brilliant	-7333
▁expressed	-7334
▁household	-7335
▁abolishing	-7336
▁discussion	-7337
▁relationship	-7338
LD	-7339
wo	-7340
bey	-7341
uct	-7342
With	-7343
▁Ple	-7344
▁exa	-7345
...".	-7346
Today	-7347
iency	-7348
▁succ	-7349
▁veiw	-7350
▁horse	-7351
▁moves	-7352
Another	-7353
estrian	-7354
▁covers	-7355
▁faulty	-7356
▁hiking	-7357
▁likley	-7358
▁cydonia	-7359
▁fiction	-7360
▁simpler	-7361
▁Election	-7362
▁Moreover	-7363
▁covering	-7364
▁dropping	-7365
▁governor	-7366
▁payments	-7367
▁Unmasking	-7368
▁elsewhere	-7369
▁facinated	-7370
▁intensive	-7371
▁neighbors	-7372
▁producing	-7373
▁businesses	-7374
▁classmates	-7375
▁Automobiles	-7376
▁necessarily	-7377
▁neighboring	-7378
ax	-7379
oe	-7380
MGS	-7381
rot	-7382
why	-7383
▁BE	-7384
▁IS	-7385
pere	-7386
▁24,	-7387
▁Bog	-7388
▁Tra	-7389
Parks	-7390
ounds	-7391
▁Viol	-7392
▁dise	-7393
▁effe	-7394
▁woul	-7395
itives	-7396
▁About	-7397
▁Parks	-7398
▁amout	-7399
▁owned	-7400
▁smell	-7401
▁staes	-7402
ciously	-7403
disgust	-7404
▁Columb	-7405
▁Places	-7406
▁beauty	-7407
▁closes	-7408
▁fleets	-7409
▁necces	-7410
▁pursue	-7411
▁Schools	-7412
▁appreci	-7413
▁broadly	-7414
▁conspir	-7415
▁induces	-7416
▁informs	-7417
▁nowhere	-7418
▁passion	-7419
▁planned	-7420
ification	-7421
▁cultural	-7422
▁reffered	-7423
▁relative	-7424
▁resident	-7425
ifications	-7426
▁allocated	-7427
▁graduation	-7428
▁investigate	-7429
▁legislators	-7430
▁represented	-7431
AY	-7432
iam	-7433
▁IT	-7434
ivak	-7435
ived	-7436
▁dru	-7437
▁hes	-7438
▁mil	-7439
▁sue	-7440
▁sup	-7441
alien	-7442
aning	-7443
ching	-7444
igree	-7445
press	-7446
times	-7447
▁bott	-7448
pected	-7449
▁lungs	-7450
▁match	-7451
athered	-7452
▁papers	-7453
▁regret	-7454
▁someth	-7455
▁belived	-7456
▁erosion	-7457
▁felling	-7458
▁entitled	-7459
▁persists	-7460
▁decreases	-7461
▁suggestion	-7462
▁temperture	-7463
temperatures	-7464
3)	-7465
sad	-7466
▁"[	-7467
adem	-7468
▁Bet	-7469
▁hav	-7470
▁rum	-7471
▁tor	-7472
althy	-7473
faces	-7474
otion	-7475
tered	-7476
▁Venu	-7477
▁emit	-7478
▁lect	-7479
▁mout	-7480
▁util	-7481
▁wond	-7482
▁obama	-7483
ictable	-7484
▁enable	-7485
▁liking	-7486
▁tablet	-7487
ollyball	-7488
▁acually	-7489
▁conserv	-7490
▁convien	-7491
▁impacts	-7492
▁infront	-7493
▁shelter	-7494
▁Elections	-7495
▁Obviously	-7496
▁exception	-7497
▁excercise	-7498
▁suggested	-7499
▁capability	-7500
▁complained	-7501
▁eliminating	-7502
▁identifying	-7503
▁tempertures	-7504
5).	-7505
BAN	-7506
eus	-7507
gas	-7508
oug	-7509
pay	-7510
Your	-7511
void	-7512
▁Rem	-7513
▁ack	-7514
▁jum	-7515
▁nar	-7516
.....	-7517
Often	-7518
▁defe	-7519
▁wrap	-7520
▁aside	-7521
▁black	-7522
▁oppin	-7523
▁orgin	-7524
▁rooms	-7525
▁sates	-7526
▁tolls	-7527
▁trees	-7528
▁insure	-7529
▁lowers	-7530
▁marvel	-7531
▁merely	-7532
▁refuse	-7533
▁untill	-7534
▁werent	-7535
▁cooling	-7536
▁enthusi	-7537
▁recongn	-7538
▁remains	-7539
▁Recently	-7540
▁develope	-7541
▁disabled	-7542
▁economic	-7543
▁finished	-7544
▁reasoned	-7545
▁consumers	-7546
▁predicted	-7547
fortunately	-7548
▁curiousity	-7549
▁tempatures	-7550
▁surprisingly	-7551
▁Environmental	-7552
,".	-7553
2).	-7554
Can	-7555
riv	-7556
▁4.	-7557
each	-7558
ieve	-7559
iing	-7560
▁Cle	-7561
ients	-7562
▁Join	-7563
▁Lots	-7564
▁dose	-7565
▁laid	-7566
▁mask	-7567
▁phar	-7568
▁phen	-7569
▁purs	-7570
sleves	-7571
▁Creat	-7572
▁Times	-7573
▁advoc	-7574
▁badly	-7575
▁doors	-7576
▁harms	-7577
▁spots	-7578
▁suits	-7579
▁texas	-7580
▁users	-7581
▁Please	-7582
▁Public	-7583
▁Stated	-7584
▁Within	-7585
▁belong	-7586
▁collab	-7587
▁doctor	-7588
▁intent	-7589
▁tempor	-7590
lication	-7591
▁Joining	-7592
▁Putting	-7593
▁concent	-7594
▁desired	-7595
▁easiest	-7596
▁relieve	-7597
faithless	-7598
▁avoiding	-7599
▁driveing	-7600
▁pioneers	-7601
▁prepares	-7602
▁artifacts	-7603
▁schooling	-7604
▁suggesting	-7605
▁intoxicated	-7606
▁psychologists	-7607
bre	-7608
ims	-7609
pab	-7610
rie	-7611
▁5)	-7612
nets	-7613
unts	-7614
▁'98	-7615
▁dom	-7616
▁eth	-7617
agers	-7618
order	-7619
riday	-7620
▁apps	-7621
▁apro	-7622
▁born	-7623
▁coud	-7624
icking	-7625
ronics	-7626
▁1950'	-7627
▁Parag	-7628
▁aloud	-7629
▁faith	-7630
▁loves	-7631
▁river	-7632
▁slide	-7633
▁terri	-7634
through	-7635
▁decade	-7636
▁ending	-7637
▁Abolish	-7638
▁involve	-7639
▁lowered	-7640
▁ourself	-7641
▁tuesday	-7642
▁wonders	-7643
▁Anything	-7644
▁Computer	-7645
▁creators	-7646
▁pedigree	-7647
▁centuries	-7648
▁confirmed	-7649
▁landmarks	-7650
▁presedent	-7651
▁Futhermore	-7652
▁carpooling	-7653
▁regardless	-7654
▁controversy	-7655
▁intelligence	-7656
▁sociologists	-7657
No	-7658
etc	-7659
ica	-7660
▁ST	-7661
2001	-7662
Mars	-7663
culi	-7664
irth	-7665
▁Rad	-7666
▁gps	-7667
▁ing	-7668
▁son	-7669
AUBAN	-7670
ingly	-7671
wards	-7672
▁Cont	-7673
▁mine	-7674
▁rout	-7675
▁unhe	-7676
▁cable	-7677
▁rover	-7678
▁sorry	-7679
▁Seeing	-7680
▁aboard	-7681
▁artist	-7682
▁backed	-7683
▁career	-7684
▁eating	-7685
▁excess	-7686
▁exsist	-7687
▁perfer	-7688
▁retain	-7689
▁theses	-7690
▁theyre	-7691
▁window	-7692
▁Chicago	-7693
▁empathy	-7694
▁monitor	-7695
▁notable	-7696
▁reprodu	-7697
▁cleaning	-7698
▁downtown	-7699
▁overwhel	-7700
▁wheather	-7701
▁Everybody	-7702
▁dangerouse	-7703
▁conventions	-7704
▁controversial	-7705
▁unpredictable	-7706
cs	-7707
rue	-7708
rum	-7709
▁39	-7710
▁WH	-7711
inst	-7712
ties	-7713
uter	-7714
▁Air	-7715
▁Jet	-7716
▁dur	-7717
Italy	-7718
raeus	-7719
▁irre	-7720
opment	-7721
rating	-7722
▁Sivak	-7723
▁block	-7724
▁coach	-7725
▁devol	-7726
▁stren	-7727
ovement	-7728
▁Survey	-7729
▁agrees	-7730
▁greece	-7731
▁progam	-7732
▁values	-7733
▁vauban	-7734
▁voices	-7735
izations	-7736
▁absolut	-7737
▁chooses	-7738
▁commute	-7739
▁enhance	-7740
▁germany	-7741
▁possibl	-7742
▁tickets	-7743
▁advertis	-7744
▁disputes	-7745
▁effected	-7746
▁incident	-7747
▁muscular	-7748
▁paragrap	-7749
▁emmissions	-7750
▁frequently	-7751
▁possiblity	-7752
▁techonolgy	-7753
▁tremendous	-7754
▁conversation	-7755
88	-7756
!!!	-7757
---	-7758
8).	-7759
blo	-7760
inks	-7761
isms	-7762
iton	-7763
ivly	-7764
rous	-7765
uers	-7766
vote	-7767
▁esp	-7768
▁tun	-7769
▁aval	-7770
▁mish	-7771
▁sake	-7772
▁tank	-7773
around	-7774
icture	-7775
ogical	-7776
recent	-7777
rently	-7778
▁Haung	-7779
▁downs	-7780
▁elses	-7781
▁quiet	-7782
▁stats	-7783
▁40,000	-7784
▁academ	-7785
▁acknow	-7786
▁batter	-7787
▁blocks	-7788
▁custom	-7789
▁paragr	-7790
▁reaser	-7791
▁ruined	-7792
ospheric	-7793
▁charged	-7794
▁dislike	-7795
▁immense	-7796
▁mercury	-7797
▁assuming	-7798
▁challange	-7799
▁exceptions	-7800
▁highschool	-7801
AL	-7802
ope	-7803
▁NO	-7804
nose	-7805
para	-7806
uing	-7807
▁Bec	-7808
▁pub	-7809
above	-7810
aying	-7811
point	-7812
▁High	-7813
▁Phar	-7814
▁Prop	-7815
▁ache	-7816
▁army	-7817
▁reas	-7818
▁rect	-7819
▁seek	-7820
▁tree	-7821
▁verd	-7822
erving	-7823
ptions	-7824
ulsion	-7825
▁Class	-7826
▁april	-7827
▁cheek	-7828
▁forty	-7829
▁intel	-7830
▁oculi	-7831
▁bridge	-7832
▁insted	-7833
▁manner	-7834
▁palpab	-7835
▁stable	-7836
▁therap	-7837
▁Wooster	-7838
▁bullied	-7839
▁follows	-7840
▁heading	-7841
▁ignored	-7842
▁periods	-7843
▁pooling	-7844
▁gathered	-7845
▁reliably	-7846
▁reported	-7847
▁condtions	-7848
▁confident	-7849
▁discussed	-7850
▁overboard	-7851
▁complicate	-7852
▁generating	-7853
▁researches	-7854
▁unemployed	-7855
▁constructed	-7856
▁entertained	-7857
ky	-7858
New	-7859
aps	-7860
bol	-7861
cie	-7862
hib	-7863
oly	-7864
see	-7865
▁$3	-7866
▁ti	-7867
lest	-7868
▁16-	-7869
▁Has	-7870
▁arr	-7871
▁gad	-7872
▁	-7873
e	-7874
t	-7875
a	-7876
o	-7877
s	-7878
n	-7879
i	-7880
r	-7881
h	-7882
l	-7883
d	-7884
u	-7885
c	-7886
m	-7887
g	-7888
p	-7889
y	-7890
f	-7891
w	-7892
b	-7893
v	-7894
.	-7895
,	-7896
k	-7897
T	-7898
I	-7899
"	-7900
A	-7901
'	-7902
x	-7903
S	-7904
C	-7905
j	-7906
V	-7907
E	-7908
W	-7909
M	-7910
F	-7911
0	-7912
N	-7913
-	-7914
P	-7915
D	-7916
B	-7917
z	-7918
?	-7919
1	-7920
H	-7921
O	-7922
L	-7923
q	-7924
2	-7925
9	-7926
R	-7927
G	-7928
3	-7929
Y	-7930
U	-7931
)	-7932
(	-7933
5	-7934
7	-7935
8	-7936
4	-7937
6	-7938
!	-7939
;	-7940
J	-7941
:	-7942
%	-7943
/	-7944
K	-7945
$	-7946
̈	-7947
[	-7948
_	-7949
]	-7950
́	-7951
&	-7952
`	-7953
	-7954
	-7955
	-7956
#	-7957
	-7958
’	-7959
X	-7960
Z	-7961
”	-7962
Q	-7963
“	-7964
*	-7965
+	-7966
—	-7967
=	-7968
~	-7969
\	-7970
}	-7971
{	-7972
|	-7973
ó	-7974
<	-7975
>	-7976
¶	-7977
	-7978
©	-7979
°	-7980
ś	-7981
	-7982
	-7983
	-7984
á	-7985
é	-7986
^	-7987
¢	-7988
£	-7989
®	-7990
Ë	-7991
Ó	-7992
Ö	-7993
ä	-7994
å	-7995
